{
  "version": "1.0",
  "truncation": null,
  "padding": null,
  "added_tokens": [
    {
      "id": 0,
      "content": "<|endoftext|>",
      "single_word": false,
      "lstrip": false,
      "rstrip": false,
      "normalized": false,
      "special": true
    },
    {
      "id": 1,
      "content": "<|padding|>",
      "single_word": false,
      "lstrip": false,
      "rstrip": false,
      "normalized": false,
      "special": true
    },
    {
      "id": 50254,
      "content": "  ",
      "single_word": false,
      "lstrip": false,
      "rstrip": false,
      "normalized": true,
      "special": false
    },
    {
      "id": 50255,
      "content": "   ",
      "single_word": false,
      "lstrip": false,
      "rstrip": false,
      "normalized": true,
      "special": false
    },
    {
      "id": 50256,
      "content": "    ",
      "single_word": false,
      "lstrip": false,
      "rstrip": false,
      "normalized": true,
      "special": false
    },
    {
      "id": 50257,
      "content": "     ",
      "single_word": false,
      "lstrip": false,
      "rstrip": false,
      "normalized": true,
      "special": false
    },
    {
      "id": 50258,
      "content": "      ",
      "single_word": false,
      "lstrip": false,
      "rstrip": false,
      "normalized": true,
      "special": false
    },
    {
      "id": 50259,
      "content": "       ",
      "single_word": false,
      "lstrip": false,
      "rstrip": false,
      "normalized": true,
      "special": false
    },
    {
      "id": 50260,
      "content": "        ",
      "single_word": false,
      "lstrip": false,
      "rstrip": false,
      "normalized": true,
      "special": false
    },
    {
      "id": 50261,
      "content": "         ",
      "single_word": false,
      "lstrip": false,
      "rstrip": false,
      "normalized": true,
      "special": false
    },
    {
      "id": 50262,
      "content": "          ",
      "single_word": false,
      "lstrip": false,
      "rstrip": false,
      "normalized": true,
      "special": false
    },
    {
      "id": 50263,
      "content": "           ",
      "single_word": false,
      "lstrip": false,
      "rstrip": false,
      "normalized": true,
      "special": false
    },
    {
      "id": 50264,
      "content": "            ",
      "single_word": false,
      "lstrip": false,
      "rstrip": false,
      "normalized": true,
      "special": false
    },
    {
      "id": 50265,
      "content": "             ",
      "single_word": false,
      "lstrip": false,
      "rstrip": false,
      "normalized": true,
      "special": false
    },
    {
      "id": 50266,
      "content": "              ",
      "single_word": false,
      "lstrip": false,
      "rstrip": false,
      "normalized": true,
      "special": false
    },
    {
      "id": 50267,
      "content": "               ",
      "single_word": false,
      "lstrip": false,
      "rstrip": false,
      "normalized": true,
      "special": false
    },
    {
      "id": 50268,
      "content": "                ",
      "single_word": false,
      "lstrip": false,
      "rstrip": false,
      "normalized": true,
      "special": false
    },
    {
      "id": 50269,
      "content": "                 ",
      "single_word": false,
      "lstrip": false,
      "rstrip": false,
      "normalized": true,
      "special": false
    },
    {
      "id": 50270,
      "content": "                  ",
      "single_word": false,
      "lstrip": false,
      "rstrip": false,
      "normalized": true,
      "special": false
    },
    {
      "id": 50271,
      "content": "                   ",
      "single_word": false,
      "lstrip": false,
      "rstrip": false,
      "normalized": true,
      "special": false
    },
    {
      "id": 50272,
      "content": "                    ",
      "single_word": false,
      "lstrip": false,
      "rstrip": false,
      "normalized": true,
      "special": false
    },
    {
      "id": 50273,
      "content": "                     ",
      "single_word": false,
      "lstrip": false,
      "rstrip": false,
      "normalized": true,
      "special": false
    },
    {
      "id": 50274,
      "content": "                      ",
      "single_word": false,
      "lstrip": false,
      "rstrip": false,
      "normalized": true,
      "special": false
    },
    {
      "id": 50275,
      "content": "                       ",
      "single_word": false,
      "lstrip": false,
      "rstrip": false,
      "normalized": true,
      "special": false
    },
    {
      "id": 50276,
      "content": "                        ",
      "single_word": false,
      "lstrip": false,
      "rstrip": false,
      "normalized": true,
      "special": false
    }
  ],
  "normalizer": {
    "type": "NFKC"
  },
  "pre_tokenizer": {
    "type": "ByteLevel",
    "add_prefix_space": false,
    "trim_offsets": true,
    "use_regex": true
  },
  "post_processor": {
    "type": "ByteLevel",
    "add_prefix_space": true,
    "trim_offsets": true,
    "use_regex": true
  },
  "decoder": {
    "type": "ByteLevel",
    "add_prefix_space": true,
    "trim_offsets": true,
    "use_regex": true
  },
  "model": {
    "type": "BPE",
    "dropout": null,
    "unk_token": null,
    "continuing_subword_prefix": null,
    "end_of_word_suffix": null,
    "fuse_unk": false,
    "byte_fallback": false,
    "vocab": {
      "<|endoftext|>": 0,
      "<|padding|>": 1,
      "!": 2,
      "\"": 3,
      "#": 4,
      "$": 5,
      "%": 6,
      "&": 7,
      "'": 8,
      "(": 9,
      ")": 10,
      "*": 11,
      "+": 12,
      ",": 13,
      "-": 14,
      ".": 15,
      "/": 16,
      "0": 17,
      "1": 18,
      "2": 19,
      "3": 20,
      "4": 21,
      "5": 22,
      "6": 23,
      "7": 24,
      "8": 25,
      "9": 26,
      ":": 27,
      ";": 28,
      "<": 29,
      "=": 30,
      ">": 31,
      "?": 32,
      "@": 33,
      "A": 34,
      "B": 35,
      "C": 36,
      "D": 37,
      "E": 38,
      "F": 39,
      "G": 40,
      "H": 41,
      "I": 42,
      "J": 43,
      "K": 44,
      "L": 45,
      "M": 46,
      "N": 47,
      "O": 48,
      "P": 49,
      "Q": 50,
      "R": 51,
      "S": 52,
      "T": 53,
      "U": 54,
      "V": 55,
      "W": 56,
      "X": 57,
      "Y": 58,
      "Z": 59,
      "[": 60,
      "\\": 61,
      "]": 62,
      "^": 63,
      "_": 64,
      "`": 65,
      "a": 66,
      "b": 67,
      "c": 68,
      "d": 69,
      "e": 70,
      "f": 71,
      "g": 72,
      "h": 73,
      "i": 74,
      "j": 75,
      "k": 76,
      "l": 77,
      "m": 78,
      "n": 79,
      "o": 80,
      "p": 81,
      "q": 82,
      "r": 83,
      "s": 84,
      "t": 85,
      "u": 86,
      "v": 87,
      "w": 88,
      "x": 89,
      "y": 90,
      "z": 91,
      "{": 92,
      "|": 93,
      "}": 94,
      "~": 95,
      "¡": 96,
      "¢": 97,
      "£": 98,
      "¤": 99,
      "¥": 100,
      "¦": 101,
      "§": 102,
      "¨": 103,
      "©": 104,
      "ª": 105,
      "«": 106,
      "¬": 107,
      "®": 108,
      "¯": 109,
      "°": 110,
      "±": 111,
      "²": 112,
      "³": 113,
      "´": 114,
      "µ": 115,
      "¶": 116,
      "·": 117,
      "¸": 118,
      "¹": 119,
      "º": 120,
      "»": 121,
      "¼": 122,
      "½": 123,
      "¾": 124,
      "¿": 125,
      "À": 126,
      "Á": 127,
      "Â": 128,
      "Ã": 129,
      "Ä": 130,
      "Å": 131,
      "Æ": 132,
      "Ç": 133,
      "È": 134,
      "É": 135,
      "Ê": 136,
      "Ë": 137,
      "Ì": 138,
      "Í": 139,
      "Î": 140,
      "Ï": 141,
      "Ð": 142,
      "Ñ": 143,
      "Ò": 144,
      "Ó": 145,
      "Ô": 146,
      "Õ": 147,
      "Ö": 148,
      "×": 149,
      "Ø": 150,
      "Ù": 151,
      "Ú": 152,
      "Û": 153,
      "Ü": 154,
      "Ý": 155,
      "Þ": 156,
      "ß": 157,
      "à": 158,
      "á": 159,
      "â": 160,
      "ã": 161,
      "ä": 162,
      "å": 163,
      "æ": 164,
      "ç": 165,
      "è": 166,
      "é": 167,
      "ê": 168,
      "ë": 169,
      "ì": 170,
      "í": 171,
      "î": 172,
      "ï": 173,
      "ð": 174,
      "ñ": 175,
      "ò": 176,
      "ó": 177,
      "ô": 178,
      "õ": 179,
      "ö": 180,
      "÷": 181,
      "ø": 182,
      "ù": 183,
      "ú": 184,
      "û": 185,
      "ü": 186,
      "ý": 187,
      "þ": 188,
      "ÿ": 189,
      "Ā": 190,
      "ā": 191,
      "Ă": 192,
      "ă": 193,
      "Ą": 194,
      "ą": 195,
      "Ć": 196,
      "ć": 197,
      "Ĉ": 198,
      "ĉ": 199,
      "Ċ": 200,
      "ċ": 201,
      "Č": 202,
      "č": 203,
      "Ď": 204,
      "ď": 205,
      "Đ": 206,
      "đ": 207,
      "Ē": 208,
      "ē": 209,
      "Ĕ": 210,
      "ĕ": 211,
      "Ė": 212,
      "ė": 213,
      "Ę": 214,
      "ę": 215,
      "Ě": 216,
      "ě": 217,
      "Ĝ": 218,
      "ĝ": 219,
      "Ğ": 220,
      "ğ": 221,
      "Ġ": 222,
      "ġ": 223,
      "Ģ": 224,
      "ģ": 225,
      "Ĥ": 226,
      "ĥ": 227,
      "Ħ": 228,
      "ħ": 229,
      "Ĩ": 230,
      "ĩ": 231,
      "Ī": 232,
      "ī": 233,
      "Ĭ": 234,
      "ĭ": 235,
      "Į": 236,
      "į": 237,
      "İ": 238,
      "ı": 239,
      "Ĳ": 240,
      "ĳ": 241,
      "Ĵ": 242,
      "ĵ": 243,
      "Ķ": 244,
      "ķ": 245,
      "ĸ": 246,
      "Ĺ": 247,
      "ĺ": 248,
      "Ļ": 249,
      "ļ": 250,
      "Ľ": 251,
      "ľ": 252,
      "Ŀ": 253,
      "ŀ": 254,
      "Ł": 255,
      "ł": 256,
      "Ń": 257,
      "in": 258,
      "Ġ0": 259,
      "st": 260,
      "er": 261,
      "**": 262,
      "on": 263,
      "re": 264,
      "00": 265,
      "at": 266,
      "ie": 267,
      "Ġt": 268,
      "--": 269,
      "Ġ*": 270,
      "Ġp": 271,
      "en": 272,
      "or": 273,
      "an": 274,
      "de": 275,
      "ar": 276,
      "Ġc": 277,
      ");": 278,
      "al": 279,
      "Ġs": 280,
      "Ġ=": 281,
      "Ġw": 282,
      "le": 283,
      "Ġ(": 284,
      "****": 285,
      "//": 286,
      "Ġi": 287,
      "Ġn": 288,
      "ĉĉ": 289,
      "ÅĤ": 290,
      "ow": 291,
      "int": 292,
      "ch": 293,
      "se": 294,
      "ct": 295,
      "ro": 296,
      "Ġm": 297,
      "am": 298,
      "Ġo": 299,
      "Ġd": 300,
      "Ġ{": 301,
      "ic": 302,
      "ze": 303,
      "it": 304,
      "----": 305,
      "Ġb": 306,
      "Ġf": 307,
      "et": 308,
      "Ġ1": 309,
      "id": 310,
      "ion": 311,
      "Ġ}": 312,
      "Ġz": 313,
      "ad": 314,
      "Ġ#": 315,
      "ur": 316,
      "he": 317,
      "ÄĻ": 318,
      "ed": 319,
      "->": 320,
      "ac": 321,
      "Äħ": 322,
      "un": 323,
      "as": 324,
      "Ġst": 325,
      "ut": 326,
      "ĠS": 327,
      "Ġre": 328,
      "Ã³": 329,
      "==": 330,
      "Ġĉ": 331,
      "es": 332,
      "ff": 333,
      "ol": 334,
      "ĠP": 335,
      "Ġv": 336,
      "********": 337,
      "Ġ//": 338,
      "Ġk": 339,
      "zy": 340,
      "lo": 341,
      "ing": 342,
      "Å¼": 343,
      "def": 344,
      "__": 345,
      "ia": 346,
      "is": 347,
      "Ġ\"": 348,
      "Ġĉĉ": 349,
      "ĠC": 350,
      "om": 351,
      "Ġthe": 352,
      "tr": 353,
      "IN": 354,
      "if": 355,
      "ine": 356,
      "Ġ-": 357,
      "em": 358,
      "0000": 359,
      "ĠT": 360,
      "Ġa": 361,
      "Ġ*/": 362,
      "Ġu": 363,
      "Ġ/": 364,
      "ra": 365,
      "ÅĽ": 366,
      "Ġ2": 367,
      "ig": 368,
      "pe": 369,
      "od": 370,
      "ĠN": 371,
      "je": 372,
      "Ġl": 373,
      "ĠA": 374,
      "Ġg": 375,
      "el": 376,
      "oid": 377,
      "ex": 378,
      "im": 379,
      "--------": 380,
      "onst": 381,
      "ent": 382,
      "::": 383,
      "urn": 384,
      "Ġint": 385,
      "Ġin": 386,
      "ak": 387,
      "ot": 388,
      "ĠM": 389,
      "ER": 390,
      "Ġpr": 391,
      "ag": 392,
      "ru": 393,
      "ate": 394,
      "turn": 395,
      "um": 396,
      "32": 397,
      "ĠW": 398,
      "ce": 399,
      "il": 400,
      "Ġto": 401,
      "ĠI": 402,
      "ĠD": 403,
      "Ġ<": 404,
      "ul": 405,
      "ue": 406,
      "ist": 407,
      "define": 408,
      "Ġna": 409,
      "iÄĻ": 410,
      "Ġ/*": 411,
      "and": 412,
      "ize": 413,
      "ne": 414,
      "Ġif": 415,
      "RE": 416,
      "op": 417,
      "cl": 418,
      "FF": 419,
      "ab": 420,
      "go": 421,
      "Ġ&": 422,
      "ode": 423,
      "cz": 424,
      "Ġdo": 425,
      "ub": 426,
      "ty": 427,
      "sk": 428,
      "ĠB": 429,
      "====": 430,
      "ap": 431,
      "ĠO": 432,
      "Ġr": 433,
      "ĠL": 434,
      "ĠR": 435,
      "Ã³w": 436,
      "01": 437,
      "ata": 438,
      "ĠG": 439,
      "us": 440,
      "ame": 441,
      "ON": 442,
      "Ġconst": 443,
      "Ġvoid": 444,
      "os": 445,
      "LL": 446,
      "****************": 447,
      "Äĩ": 448,
      "\",": 449,
      "ST": 450,
      "ck": 451,
      "nie": 452,
      "end": 453,
      "ym": 454,
      "ĠF": 455,
      "ci": 456,
      "Ġj": 457,
      "ych": 458,
      "nt": 459,
      "dz": 460,
      "ile": 461,
      "aÅĤ": 462,
      "ni": 463,
      "Ġreturn": 464,
      "ation": 465,
      "Ġch": 466,
      "OR": 467,
      "EN": 468,
      "Ġh": 469,
      "Ġof": 470,
      "ruct": 471,
      "ext": 472,
      "Ġpo": 473,
      "âĢ": 474,
      "))": 475,
      "ve": 476,
      "ri": 477,
      "pl": 478,
      "AT": 479,
      "////": 480,
      "ase": 481,
      "16": 482,
      "..": 483,
      "res": 484,
      "Ġ+": 485,
      "ont": 486,
      "ob": 487,
      "ĠU": 488,
      "),": 489,
      "Ġx": 490,
      "clu": 491,
      "aw": 492,
      "th": 493,
      "AR": 494,
      "clude": 495,
      "xff": 496,
      "Ġfor": 497,
      "SE": 498,
      "ĠE": 499,
      "Ġwy": 500,
      "set": 501,
      "ĠK": 502,
      "64": 503,
      "ka": 504,
      "Ġ@": 505,
      "DE": 506,
      "----------------": 507,
      "In": 508,
      "include": 509,
      "ir": 510,
      "ass": 511,
      "Ġth": 512,
      "12": 513,
      "ype": 514,
      "IT": 515,
      "arg": 516,
      "10": 517,
      "str": 518,
      "atic": 519,
      "li": 520,
      "ki": 521,
      "ction": 522,
      "ver": 523,
      "Ġ_": 524,
      "ort": 525,
      "Ġro": 526,
      "Ġis": 527,
      "AL": 528,
      "alue": 529,
      "Ġ__": 530,
      "Ġ==": 531,
      "pt": 532,
      "ĠsiÄĻ": 533,
      "oÅĽ": 534,
      "Ġ3": 535,
      "ach": 536,
      "jÄħ": 537,
      "()": 538,
      "pr": 539,
      "ign": 540,
      "Ġnie": 541,
      "per": 542,
      "ULL": 543,
      "aram": 544,
      "();": 545,
      "Ġprze": 546,
      "LE": 547,
      "11": 548,
      "able": 549,
      "sz": 550,
      "ier": 551,
      "ack": 552,
      "Ġpro": 553,
      "20": 554,
      "age": 555,
      "Ġe": 556,
      "up": 557,
      "art": 558,
      "MA": 559,
      "ject": 560,
      "oun": 561,
      "ult": 562,
      "all": 563,
      "ĠâĢ": 564,
      "Ġby": 565,
      "bu": 566,
      "void": 567,
      "ÅĦ": 568,
      "Ġde": 569,
      "ĠH": 570,
      "wa": 571,
      "Ġ4": 572,
      "te": 573,
      "Re": 574,
      "sc": 575,
      "err": 576,
      "Ġstatic": 577,
      "SS": 578,
      "ku": 579,
      "ess": 580,
      "========": 581,
      "na": 582,
      "Ġchar": 583,
      "ht": 584,
      "ace": 585,
      "Ġor": 586,
      "of": 587,
      "Ġje": 588,
      "CT": 589,
      "Ġ\\": 590,
      "55": 591,
      "owan": 592,
      "Ġ|": 593,
      "ter": 594,
      "(\"": 595,
      "INT": 596,
      "ay": 597,
      "oc": 598,
      "AN": 599,
      "og": 600,
      "ID": 601,
      "ost": 602,
      "fo": 603,
      "add": 604,
      "ĠNULL": 605,
      "return": 606,
      "size": 607,
      "const": 608,
      "Ġun": 609,
      "owe": 610,
      "Ġbe": 611,
      "else": 612,
      "ĠZ": 613,
      "Ġ!": 614,
      "ool": 615,
      "ctor": 616,
      "pro": 617,
      "St": 618,
      "Å¼e": 619,
      "ers": 620,
      "sp": 621,
      "14": 622,
      "xFF": 623,
      "put": 624,
      "Ġand": 625,
      "ĠJ": 626,
      "Ġ19": 627,
      "ĠV": 628,
      "Ġod": 629,
      "Ġĉĉĉ": 630,
      "iel": 631,
      "iej": 632,
      "orm": 633,
      "ight": 634,
      "sign": 635,
      "Ġle": 636,
      "get": 637,
      "80": 638,
      "mp": 639,
      "ran": 640,
      "ry": 641,
      "ice": 642,
      "19": 643,
      "Ġsize": 644,
      "out": 645,
      "ith": 646,
      "Ġĉĉĉĉ": 647,
      "ser": 648,
      "ok": 649,
      "Ġuint": 650,
      "ec": 651,
      "RO": 652,
      "000": 653,
      "13": 654,
      "ME": 655,
      "ji": 656,
      "CE": 657,
      "Ġstruct": 658,
      "},": 659,
      "lock": 660,
      "Ġon": 661,
      "loc": 662,
      "ind": 663,
      "));": 664,
      "/*": 665,
      "PI": 666,
      "Ġ5": 667,
      "data": 668,
      "15": 669,
      "ment": 670,
      "tu": 671,
      "ib": 672,
      "Ġob": 673,
      "ey": 674,
      "ern": 675,
      "az": 676,
      "struct": 677,
      "////////": 678,
      "24": 679,
      "Ġte": 680,
      "25": 681,
      "ma": 682,
      "ĠâĢĵ": 683,
      "omp": 684,
      "AD": 685,
      "ĠĠĉ": 686,
      "Ġ:": 687,
      "wi": 688,
      "signed": 689,
      "ime": 690,
      "77": 691,
      "********************************": 692,
      "ffer": 693,
      "18": 694,
      "py": 695,
      "\");": 696,
      "val": 697,
      "((": 698,
      "ree": 699,
      "ny": 700,
      "ast": 701,
      "xf": 702,
      "Ġsp": 703,
      "uint": 704,
      "ore": 705,
      "dex": 706,
      "Ġ!=": 707,
      "UT": 708,
      "con": 709,
      "cie": 710,
      "oÅĽci": 711,
      "ÅĤa": 712,
      "Ġ%": 713,
      "type": 714,
      "SI": 715,
      "++": 716,
      "CH": 717,
      "lic": 718,
      "endif": 719,
      "Ġ)": 720,
      "ong": 721,
      "];": 722,
      "30": 723,
      "ator": 724,
      "PE": 725,
      "tÃ³": 726,
      "rom": 727,
      "nia": 728,
      "Å¼y": 729,
      "ite": 730,
      "len": 731,
      "Ġ>": 732,
      "param": 733,
      "raw": 734,
      "read": 735,
      "17": 736,
      "ity": 737,
      "22": 738,
      "ure": 739,
      "ale": 740,
      "Ġjest": 741,
      "line": 742,
      "CO": 743,
      "LO": 744,
      "TR": 745,
      "Ġ},": 746,
      "qu": 747,
      "Ġ6": 748,
      "Ġelse": 749,
      "Ġcl": 750,
      "Type": 751,
      "ount": 752,
      "ang": 753,
      "ain": 754,
      "io": 755,
      "00000000": 756,
      "nych": 757,
      "Ġ'": 758,
      "Ġprzy": 759,
      "Ġpod": 760,
      "ud": 761,
      "UN": 762,
      "que": 763,
      "Ġ8": 764,
      "cy": 765,
      "ĠktÃ³": 766,
      "by": 767,
      "33": 768,
      "iv": 769,
      "Ġ};": 770,
      "Ġstr": 771,
      "port": 772,
      "ial": 773,
      "Ġ/**": 774,
      "04": 775,
      "ord": 776,
      "name": 777,
      "02": 778,
      "AB": 779,
      "ip": 780,
      "(&": 781,
      "FI": 782,
      "loat": 783,
      "Ġjak": 784,
      "Ġthis": 785,
      "99": 786,
      "opy": 787,
      "ko": 788,
      "are": 789,
      "tring": 790,
      "ED": 791,
      "Ġan": 792,
      "CL": 793,
      "intf": 794,
      "czy": 795,
      "Ġtype": 796,
      "uble": 797,
      "string": 798,
      "eg": 799,
      "Ġcz": 800,
      "EX": 801,
      "Ġstd": 802,
      "iz": 803,
      "ray": 804,
      "ptr": 805,
      "MP": 806,
      "ski": 807,
      "De": 808,
      "TI": 809,
      "one": 810,
      "our": 811,
      "vice": 812,
      "iem": 813,
      "error": 814,
      "szy": 815,
      "Ġ*)": 816,
      "CK": 817,
      "Ob": 818,
      "34": 819,
      "rze": 820,
      "la": 821,
      "xb": 822,
      "atus": 823,
      "wo": 824,
      "form": 825,
      "Ġex": 826,
      "iaÅĤ": 827,
      "xc": 828,
      "nd": 829,
      "GE": 830,
      "ll": 831,
      "ERR": 832,
      "xF": 833,
      "ber": 834,
      "Ġy": 835,
      "reak": 836,
      "ĠĉĠ": 837,
      "yn": 838,
      "du": 839,
      "--------------------------------": 840,
      "char": 841,
      "vent": 842,
      "ublic": 843,
      "Ġ[": 844,
      "Ġ7": 845,
      "Ġwh": 846,
      "icz": 847,
      "ert": 848,
      "Ġdz": 849,
      "Ġen": 850,
      "Ġnot": 851,
      "ĠÅĽ": 852,
      "IS": 853,
      "Ġ((": 854,
      "unction": 855,
      "std": 856,
      "xe": 857,
      "ew": 858,
      "ja": 859,
      "inter": 860,
      "Ġ&&": 861,
      "ress": 862,
      "ary": 863,
      "xd": 864,
      "sh": 865,
      "Ġit": 866,
      "28": 867,
      "##": 868,
      "cze": 869,
      "Ġwith": 870,
      "ph": 871,
      "sed": 872,
      "yst": 873,
      "ard": 874,
      "ask": 875,
      "lag": 876,
      "03": 877,
      "Ġ,": 878,
      "TH": 879,
      "TY": 880,
      "Ġsz": 881,
      "Ġbool": 882,
      "owa": 883,
      "ly": 884,
      "Ġ);": 885,
      "Ġza": 886,
      "Ġ201": 887,
      "65": 888,
      "rc": 889,
      "Ġvalue": 890,
      "rzy": 891,
      "ory": 892,
      "ath": 893,
      "US": 894,
      "bo": 895,
      "ii": 896,
      "ition": 897,
      "to": 898,
      "ING": 899,
      "23": 900,
      "Ġal": 901,
      "Ġty": 902,
      "].": 903,
      "cess": 904,
      "Ġcon": 905,
      "UL": 906,
      "ION": 907,
      "Data": 908,
      "iew": 909,
      "40": 910,
      "owie": 911,
      "kt": 912,
      "ami": 913,
      "value": 914,
      "ĠThe": 915,
      "Pro": 916,
      "Ġmo": 917,
      "IC": 918,
      "xa": 919,
      "ive": 920,
      "ÅĤo": 921,
      "29": 922,
      "================": 923,
      "ĠÅ¼e": 924,
      "ca": 925,
      "60": 926,
      "Ġset": 927,
      "po": 928,
      "Ġma": 929,
      "Object": 930,
      "omm": 931,
      "ĠIn": 932,
      "Ġclass": 933,
      "ania": 934,
      "Ġ9": 935,
      "ption": 936,
      "nej": 937,
      "his": 938,
      "ix": 939,
      "...": 940,
      "fig": 941,
      "],": 942,
      "Cont": 943,
      "35": 944,
      "pyx": 945,
      "68": 946,
      ":(": 947,
      "74": 948,
      "est": 949,
      "no": 950,
      "ms": 951,
      "Ġtak": 952,
      "Ġcase": 953,
      "uffer": 954,
      "anie": 955,
      "info": 956,
      "enia": 957,
      "dy": 958,
      "min": 959,
      "ated": 960,
      "nym": 961,
      "38": 962,
      "si": 963,
      "num": 964,
      "Ġdata": 965,
      "ĉĉĉĉ": 966,
      "rite": 967,
      "Ġunsigned": 968,
      "ield": 969,
      "ens": 970,
      "75": 971,
      "Ġ<<": 972,
      "reg": 973,
      "CON": 974,
      "ense": 975,
      "lement": 976,
      "ffset": 977,
      "08": 978,
      "ys": 979,
      "44": 980,
      "CA": 981,
      "ÅĤu": 982,
      "LA": 983,
      "Ġget": 984,
      "Ar": 985,
      "69": 986,
      "Ġlean": 987,
      "ust": 988,
      "ire": 989,
      "Get": 990,
      "odz": 991,
      "ÅĤy": 992,
      "skie": 993,
      "OL": 994,
      "andle": 995,
      "code": 996,
      "78": 997,
      "*/": 998,
      "pen": 999,
      ").": 1000,
      "ĠX": 1001,
      "Ġsh": 1002,
      "ane": 1003,
      "dd": 1004,
      "Ġ///": 1005,
      "Ġat": 1006,
      "nego": 1007,
      "der": 1008,
      "tual": 1009,
      "Ġfile": 1010,
      "buf": 1011,
      "Int": 1012,
      "pp": 1013,
      "wie": 1014,
      "39": 1015,
      "dzie": 1016,
      "Ġroz": 1017,
      "ource": 1018,
      "try": 1019,
      "br": 1020,
      "ail": 1021,
      "file": 1022,
      "ĠSt": 1023,
      "Ġdef": 1024,
      "owy": 1025,
      "Ġext": 1026,
      "Set": 1027,
      "66": 1028,
      "String": 1029,
      "RA": 1030,
      "ener": 1031,
      "Ġlo": 1032,
      "SH": 1033,
      "Ġtem": 1034,
      "OP": 1035,
      "ep": 1036,
      "list": 1037,
      "ies": 1038,
      "ames": 1039,
      "ient": 1040,
      "Ġ;": 1041,
      "ant": 1042,
      "07": 1043,
      "ENT": 1044,
      "sze": 1045,
      "Ġpublic": 1046,
      "map": 1047,
      "TYPE": 1048,
      "Ġ.": 1049,
      "HE": 1050,
      "05": 1051,
      "ORT": 1052,
      "ader": 1053,
      "ance": 1054,
      "gth": 1055,
      "ill": 1056,
      "case": 1057,
      "27": 1058,
      "ret": 1059,
      "object": 1060,
      "printf": 1061,
      "irtual": 1062,
      "Ġthat": 1063,
      "88": 1064,
      "pec": 1065,
      "IL": 1066,
      "gr": 1067,
      "adz": 1068,
      "ound": 1069,
      "acji": 1070,
      "Ġwe": 1071,
      "ystem": 1072,
      "ss": 1073,
      "xE": 1074,
      "Ġjed": 1075,
      "Ġsk": 1076,
      "Ġnum": 1077,
      "ycz": 1078,
      "ash": 1079,
      "oÅĽÄĩ": 1080,
      "indow": 1081,
      "Ġres": 1082,
      "Ġse": 1083,
      "ream": 1084,
      "aj": 1085,
      "wor": 1086,
      "ole": 1087,
      "ute": 1088,
      "IF": 1089,
      "Ġpow": 1090,
      "ich": 1091,
      "dev": 1092,
      "urre": 1093,
      "ull": 1094,
      "Ġroku": 1095,
      "enie": 1096,
      "Id": 1097,
      "quest": 1098,
      "Ġze": 1099,
      "37": 1100,
      "ĠĠĉĉ": 1101,
      "addr": 1102,
      "tem": 1103,
      "Ch": 1104,
      ")(": 1105,
      "jÄĻ": 1106,
      "26": 1107,
      "nik": 1108,
      "Ġprzez": 1109,
      "ault": 1110,
      "////////////////": 1111,
      "TE": 1112,
      "XFF": 1113,
      "Ġ**": 1114,
      "unc": 1115,
      "Åº": 1116,
      "perty": 1117,
      "olor": 1118,
      "jÄħc": 1119,
      "Ġoraz": 1120,
      "Ġcont": 1121,
      "][": 1122,
      "Ex": 1123,
      "09": 1124,
      "ĠĉĠĠ": 1125,
      "cm": 1126,
      "rr": 1127,
      "back": 1128,
      "atch": 1129,
      "Ġlong": 1130,
      "Ġas": 1131,
      "ĠIN": 1132,
      "DI": 1133,
      "cont": 1134,
      "BU": 1135,
      "ock": 1136,
      "nÄħ": 1137,
      "state": 1138,
      "my": 1139,
      "Ġout": 1140,
      "right": 1141,
      "STAT": 1142,
      "MO": 1143,
      "NO": 1144,
      "icense": 1145,
      "Ġextern": 1146,
      "essage": 1147,
      "ge": 1148,
      "SC": 1149,
      "000000": 1150,
      "init": 1151,
      "Ġ||": 1152,
      "xC": 1153,
      "face": 1154,
      "Ġdouble": 1155,
      "rÃ³": 1156,
      "reate": 1157,
      "45": 1158,
      "48": 1159,
      "SET": 1160,
      "36": 1161,
      "Ġ(!": 1162,
      "ik": 1163,
      "UE": 1164,
      "acz": 1165,
      "owych": 1166,
      "act": 1167,
      "urrent": 1168,
      "UR": 1169,
      "Name": 1170,
      "iÅĤ": 1171,
      "ref": 1172,
      "Ġar": 1173,
      "Ġop": 1174,
      "REG": 1175,
      "Ġfrom": 1176,
      "gl": 1177,
      "ann": 1178,
      "21": 1179,
      "lin": 1180,
      "Ġreg": 1181,
      "ou": 1182,
      "ĠQ": 1183,
      "its": 1184,
      "Ġsizeof": 1185,
      "ĠĉĠĠĠ": 1186,
      "key": 1187,
      "FA": 1188,
      "âĢĿ": 1189,
      "ĠThis": 1190,
      "Con": 1191,
      "alloc": 1192,
      "Info": 1193,
      "do": 1194,
      "own": 1195,
      "SP": 1196,
      "Ġtypedef": 1197,
      "amp": 1198,
      "49": 1199,
      "mem": 1200,
      "ĠÅ": 1201,
      "Param": 1202,
      "En": 1203,
      "Res": 1204,
      "79": 1205,
      "eth": 1206,
      "06": 1207,
      "mo": 1208,
      "ÅĤad": 1209,
      "unsigned": 1210,
      "ZE": 1211,
      "Ġarg": 1212,
      "VAL": 1213,
      "VE": 1214,
      "STR": 1215,
      "owej": 1216,
      "IG": 1217,
      "Ġbreak": 1218,
      "Ġco": 1219,
      "Ã³ÅĤ": 1220,
      "lags": 1221,
      "iu": 1222,
      "pu": 1223,
      "da": 1224,
      "IP": 1225,
      "Ġpos": 1226,
      "31": 1227,
      "ĠâĢŀ": 1228,
      "rame": 1229,
      "ister": 1230,
      "MAX": 1231,
      "niej": 1232,
      "low": 1233,
      "ek": 1234,
      "pace": 1235,
      "Ġ200": 1236,
      "time": 1237,
      "tp": 1238,
      "NE": 1239,
      "IM": 1240,
      "Ġare": 1241,
      "Ġdla": 1242,
      "xB": 1243,
      "ĠPol": 1244,
      "Ġ16": 1245,
      "ector": 1246,
      "Size": 1247,
      "ide": 1248,
      "ery": 1249,
      "<<": 1250,
      "node": 1251,
      "++)": 1252,
      "Ġinline": 1253,
      "Ġus": 1254,
      "arz": 1255,
      "uf": 1256,
      "VER": 1257,
      "List": 1258,
      "count": 1259,
      "index": 1260,
      "Ġczy": 1261,
      "Ġsc": 1262,
      "oft": 1263,
      "CC": 1264,
      "*)": 1265,
      "ĠAN": 1266,
      "ĠPo": 1267,
      "sa": 1268,
      "SK": 1269,
      "pd": 1270,
      "ĠGet": 1271,
      "PRO": 1272,
      "Ġim": 1273,
      "odu": 1274,
      "Value": 1275,
      "opyright": 1276,
      "Ġlist": 1277,
      "ware": 1278,
      "pos": 1279,
      "aÅĤa": 1280,
      "TO": 1281,
      "ĠOR": 1282,
      "Ġ10": 1283,
      "acy": 1284,
      "unk": 1285,
      "rz": 1286,
      "85": 1287,
      "alse": 1288,
      "ere": 1289,
      "oto": 1290,
      "Ġzost": 1291,
      "Ġ15": 1292,
      "mi": 1293,
      "dr": 1294,
      "CM": 1295,
      "ffff": 1296,
      "Ġfloat": 1297,
      "ĠRe": 1298,
      "Ġnaj": 1299,
      "Ġfunction": 1300,
      "89": 1301,
      "ble": 1302,
      "ied": 1303,
      "noÅĽci": 1304,
      "67": 1305,
      "DR": 1306,
      "for": 1307,
      "xA": 1308,
      "VI": 1309,
      "staw": 1310,
      "SU": 1311,
      "nic": 1312,
      "ined": 1313,
      "ÅĽci": 1314,
      "Ġval": 1315,
      "Ġlen": 1316,
      "iÄħ": 1317,
      "plate": 1318,
      "ctx": 1319,
      "Ġpol": 1320,
      "ony": 1321,
      "tx": 1322,
      "PP": 1323,
      "rror": 1324,
      "Ġpl": 1325,
      "cji": 1326,
      "cc": 1327,
      "ERROR": 1328,
      "ndef": 1329,
      "buffer": 1330,
      "any": 1331,
      "84": 1332,
      "Ġos": 1333,
      "heck": 1334,
      "rib": 1335,
      "ABLE": 1336,
      "___": 1337,
      "Ġnames": 1338,
      "Ġok": 1339,
      "aÄĩ": 1340,
      "INE": 1341,
      "BA": 1342,
      "xD": 1343,
      "skiego": 1344,
      "Ġadd": 1345,
      ",-": 1346,
      "atom": 1347,
      "vel": 1348,
      "Ġid": 1349,
      "Ġnew": 1350,
      "....": 1351,
      "ument": 1352,
      "Ġwie": 1353,
      "ifndef": 1354,
      "SIZE": 1355,
      "trib": 1356,
      "Ġtru": 1357,
      "mm": 1358,
      "ĠCh": 1359,
      "Ġret": 1360,
      "aÅ¼": 1361,
      "View": 1362,
      "float": 1363,
      "Ġkon": 1364,
      "Cl": 1365,
      "property": 1366,
      "ali": 1367,
      "Ġuse": 1368,
      "Ġ+=": 1369,
      "av": 1370,
      "ler": 1371,
      "roup": 1372,
      "Ġmem": 1373,
      "GL": 1374,
      "Ġhe": 1375,
      "42": 1376,
      "ĠOF": 1377,
      "ĠLicense": 1378,
      "ans": 1379,
      "Ġoper": 1380,
      "Ġname": 1381,
      "pi": 1382,
      "Py": 1383,
      "86": 1384,
      "ĠINT": 1385,
      "AM": 1386,
      "Ġerror": 1387,
      "kow": 1388,
      "cia": 1389,
      "ence": 1390,
      "72": 1391,
      "ĠktÃ³re": 1392,
      "BO": 1393,
      "odel": 1394,
      "rans": 1395,
      "95": 1396,
      "bi": 1397,
      "ĠsÄħ": 1398,
      "wy": 1399,
      "ld": 1400,
      "lob": 1401,
      "61": 1402,
      "tes": 1403,
      "70": 1404,
      "ache": 1405,
      "EXT": 1406,
      "ta": 1407,
      "ave": 1408,
      "Ġvirtual": 1409,
      "fe": 1410,
      "IO": 1411,
      "377": 1412,
      "log": 1413,
      "iter": 1414,
      "pis": 1415,
      "fer": 1416,
      "red": 1417,
      "ief": 1418,
      "ication": 1419,
      "73": 1420,
      "ommand": 1421,
      "Ptr": 1422,
      "****************************************************************": 1423,
      "vector": 1424,
      "PO": 1425,
      "ft": 1426,
      "uje": 1427,
      "Ġtym": 1428,
      "asz": 1429,
      "ions": 1430,
      "row": 1431,
      "AS": 1432,
      "ĠPy": 1433,
      "db": 1434,
      "76": 1435,
      "AME": 1436,
      "ark": 1437,
      "Le": 1438,
      "cted": 1439,
      "Ġnamespace": 1440,
      "brief": 1441,
      "Ġinter": 1442,
      "oftware": 1443,
      "Sc": 1444,
      "Ġmiej": 1445,
      "pename": 1446,
      "DO": 1447,
      "Var": 1448,
      "fd": 1449,
      "PR": 1450,
      "rag": 1451,
      "mie": 1452,
      "ange": 1453,
      "ps": 1454,
      "To": 1455,
      "56": 1456,
      "UM": 1457,
      "50": 1458,
      "Ġser": 1459,
      "erm": 1460,
      "msg": 1461,
      "rol": 1462,
      "54": 1463,
      "Ġ(*": 1464,
      "LI": 1465,
      "Array": 1466,
      "ĠDE": 1467,
      "ifdef": 1468,
      "CTION": 1469,
      "lu": 1470,
      "Im": 1471,
      "DAT": 1472,
      "ajÄħ": 1473,
      "ved": 1474,
      "lay": 1475,
      "we": 1476,
      "59": 1477,
      "atri": 1478,
      "',": 1479,
      "Buffer": 1480,
      "Node": 1481,
      "idth": 1482,
      "NULL": 1483,
      "assert": 1484,
      "irst": 1485,
      "ĠPro": 1486,
      "oj": 1487,
      "class": 1488,
      "ethod": 1489,
      "pc": 1490,
      "PC": 1491,
      "annel": 1492,
      "break": 1493,
      "free": 1494,
      "Ġpre": 1495,
      "allback": 1496,
      "Ġall": 1497,
      "TA": 1498,
      "File": 1499,
      "ska": 1500,
      "ĠCON": 1501,
      "Add": 1502,
      "RES": 1503,
      "46": 1504,
      "ild": 1505,
      "owego": 1506,
      "ASS": 1507,
      "be": 1508,
      "Ġcomp": 1509,
      "41": 1510,
      "END": 1511,
      "start": 1512,
      "ana": 1513,
      "Ġtrue": 1514,
      "Ġfalse": 1515,
      "PORT": 1516,
      "base": 1517,
      "skiej": 1518,
      "ele": 1519,
      "par": 1520,
      "ART": 1521,
      "ater": 1522,
      "ĠSet": 1523,
      "opt": 1524,
      "]);": 1525,
      "ES": 1526,
      "double": 1527,
      "State": 1528,
      "func": 1529,
      "com": 1530,
      "Ġaut": 1531,
      "gram": 1532,
      "comp": 1533,
      "Ġpoz": 1534,
      "istrib": 1535,
      "Ġspec": 1536,
      "wÃ³": 1537,
      "FO": 1538,
      "ell": 1539,
      "pre": 1540,
      "usz": 1541,
      "ride": 1542,
      "ĠGL": 1543,
      "ĠCopyright": 1544,
      "bl": 1545,
      "ick": 1546,
      "new": 1547,
      "Äħd": 1548,
      "Ġlub": 1549,
      "uld": 1550,
      "ardz": 1551,
      "Ġread": 1552,
      "82": 1553,
      "Ġresult": 1554,
      "Ġkey": 1555,
      "Ġno": 1556,
      "Ġprzed": 1557,
      "Ġover": 1558,
      "ces": 1559,
      "Index": 1560,
      "co": 1561,
      "stance": 1562,
      "Ġcan": 1563,
      "Ġtr": 1564,
      "status": 1565,
      "stÄĻ": 1566,
      "Un": 1567,
      "write": 1568,
      "Error": 1569,
      "Window": 1570,
      "201": 1571,
      "63": 1572,
      "ee": 1573,
      "owaÅĤ": 1574,
      "olat": 1575,
      "ULT": 1576,
      "ITY": 1577,
      "andler": 1578,
      "98": 1579,
      "bit": 1580,
      "atrix": 1581,
      "odule": 1582,
      "At": 1583,
      "Ġbo": 1584,
      "ded": 1585,
      "stat": 1586,
      "let": 1587,
      "(__": 1588,
      "ersion": 1589,
      "Ġpar": 1590,
      "Po": 1591,
      "Ġsam": 1592,
      "ake": 1593,
      "Ġsu": 1594,
      "atomic": 1595,
      "OUT": 1596,
      "bool": 1597,
      "PIO": 1598,
      "static": 1599,
      "ĠY": 1600,
      "Ġprintf": 1601,
      "result": 1602,
      "Ġdzie": 1603,
      "arget": 1604,
      "Ġtemplate": 1605,
      "olatile": 1606,
      "max": 1607,
      "81": 1608,
      "Ġwill": 1609,
      "imer": 1610,
      "Event": 1611,
      "####": 1612,
      "itch": 1613,
      "Ġ?": 1614,
      "Key": 1615,
      "Ġ\"\\": 1616,
      "esc": 1617,
      "obj": 1618,
      "var": 1619,
      "work": 1620,
      "load": 1621,
      "uÅ¼": 1622,
      "Ġac": 1623,
      "AP": 1624,
      "aÅĦ": 1625,
      "leg": 1626,
      "Num": 1627,
      "API": 1628,
      "ote": 1629,
      "DB": 1630,
      "90": 1631,
      "128": 1632,
      "CF": 1633,
      "43": 1634,
      "field": 1635,
      "pon": 1636,
      "Ġend": 1637,
      "};": 1638,
      "this": 1639,
      "Ġparam": 1640,
      "Ġĉĉĉĉĉ": 1641,
      "Ġ32": 1642,
      "Ġbuffer": 1643,
      "owania": 1644,
      "62": 1645,
      "47": 1646,
      "test": 1647,
      "mu": 1648,
      "kÃ³w": 1649,
      "ush": 1650,
      "Ġindex": 1651,
      "UP": 1652,
      "iesz": 1653,
      "CP": 1654,
      "ET": 1655,
      "play": 1656,
      "ues": 1657,
      "ĠTHE": 1658,
      "riv": 1659,
      "ify": 1660,
      "SR": 1661,
      "Ġdis": 1662,
      "cp": 1663,
      "ax": 1664,
      "_;": 1665,
      "SD": 1666,
      "UI": 1667,
      "roll": 1668,
      "eni": 1669,
      "ĠmoÅ¼": 1670,
      "Ġobject": 1671,
      "Ġtime": 1672,
      "AC": 1673,
      "kie": 1674,
      "af": 1675,
      "ORD": 1676,
      "97": 1677,
      "use": 1678,
      "ierw": 1679,
      "Sh": 1680,
      "ĠST": 1681,
      "Comp": 1682,
      "ona": 1683,
      "83": 1684,
      "\";": 1685,
      "wiÄħ": 1686,
      "Ġra": 1687,
      "Ġzap": 1688,
      "lobal": 1689,
      "Ġpom": 1690,
      "zn": 1691,
      "KE": 1692,
      "sg": 1693,
      "MASK": 1694,
      "Ġwyk": 1695,
      "Ġter": 1696,
      "ĠĉĉĠ": 1697,
      "ther": 1698,
      "iÄĻk": 1699,
      "Ġzn": 1700,
      "iast": 1701,
      "Ġzaw": 1702,
      "ody": 1703,
      "OF": 1704,
      "rt": 1705,
      "ript": 1706,
      "OT": 1707,
      "next": 1708,
      "owane": 1709,
      "Str": 1710,
      "ton": 1711,
      "config": 1712,
      "Ġnumber": 1713,
      "szyst": 1714,
      "Ġale": 1715,
      "aty": 1716,
      "dis": 1717,
      "ARE": 1718,
      "point": 1719,
      "ernal": 1720,
      "ĠWy": 1721,
      "Context": 1722,
      "sy": 1723,
      "[]": 1724,
      "Ġkl": 1725,
      "cur": 1726,
      "Ġstring": 1727,
      "sion": 1728,
      "ould": 1729,
      "ĉĉĉ": 1730,
      "gn": 1731,
      "array": 1732,
      "lf": 1733,
      "bug": 1734,
      "ample": 1735,
      "){": 1736,
      "Ġcode": 1737,
      "offset": 1738,
      "52": 1739,
      "================================": 1740,
      "Ġ::": 1741,
      "SY": 1742,
      "pie": 1743,
      "87": 1744,
      "md": 1745,
      "oÅĤ": 1746,
      "ba": 1747,
      "Ġnas": 1748,
      "ÅĤug": 1749,
      "ĠbÄĻ": 1750,
      "Ġstart": 1751,
      "Ġ>=": 1752,
      "96": 1753,
      "Ġsub": 1754,
      "ĠPrzy": 1755,
      "owi": 1756,
      "AND": 1757,
      "und": 1758,
      "Ġ12": 1759,
      "tk": 1760,
      "non": 1761,
      "Time": 1762,
      "ĠDe": 1763,
      ")->": 1764,
      "CR": 1765,
      "Ġzak": 1766,
      "eter": 1767,
      "sw": 1768,
      "acket": 1769,
      "255": 1770,
      "ilter": 1771,
      "table": 1772,
      "eturn": 1773,
      "Ġused": 1774,
      "Ser": 1775,
      "lete": 1776,
      "Ġmin": 1777,
      "53": 1778,
      "cb": 1779,
      "Ġ20": 1780,
      "lear": 1781,
      "dzi": 1782,
      "Ġnode": 1783,
      "istribut": 1784,
      "Ġad": 1785,
      "MS": 1786,
      "OD": 1787,
      "ccess": 1788,
      "aa": 1789,
      "94": 1790,
      "Out": 1791,
      "Ġswo": 1792,
      "ink": 1793,
      "Text": 1794,
      "Reg": 1795,
      "xFFFF": 1796,
      "sub": 1797,
      "Ġdefined": 1798,
      "anag": 1799,
      "abel": 1800,
      "Ġczas": 1801,
      "++;": 1802,
      "58": 1803,
      "Ġjako": 1804,
      "Ġwsp": 1805,
      "itial": 1806,
      "tmp": 1807,
      "Ġbez": 1808,
      "owaÄĩ": 1809,
      "Al": 1810,
      "Ġjedn": 1811,
      "raf": 1812,
      "Ġ18": 1813,
      "skim": 1814,
      "EL": 1815,
      "old": 1816,
      "path": 1817,
      "ĠzostaÅĤ": 1818,
      "owanie": 1819,
      "SL": 1820,
      ">(": 1821,
      "enc": 1822,
      "Ġtest": 1823,
      "arch": 1824,
      "mt": 1825,
      "raph": 1826,
      "IB": 1827,
      "owym": 1828,
      "57": 1829,
      "Ġ255": 1830,
      "ĠSz": 1831,
      "ual": 1832,
      "ync": 1833,
      "amy": 1834,
      "ĠIf": 1835,
      "led": 1836,
      "vert": 1837,
      "uk": 1838,
      "BIT": 1839,
      "DC": 1840,
      "200": 1841,
      "fs": 1842,
      "lib": 1843,
      "Ġwz": 1844,
      "sym": 1845,
      "OK": 1846,
      "clo": 1847,
      "ATE": 1848,
      "IR": 1849,
      "pa": 1850,
      "SA": 1851,
      "RAN": 1852,
      "entry": 1853,
      "bie": 1854,
      "cept": 1855,
      "arent": 1856,
      "ÅĤÄħ": 1857,
      "Ġap": 1858,
      "____": 1859,
      "son": 1860,
      "ml": 1861,
      "He": 1862,
      "ÂŃ": 1863,
      "block": 1864,
      "ERT": 1865,
      "Ġgo": 1866,
      "NAME": 1867,
      "ww": 1868,
      "ared": 1869,
      "rit": 1870,
      "olum": 1871,
      "flags": 1872,
      "Ġup": 1873,
      "ĠInt": 1874,
      "ĠUINT": 1875,
      "ron": 1876,
      "Ġcopy": 1877,
      "HT": 1878,
      "mode": 1879,
      "olog": 1880,
      "skich": 1881,
      "src": 1882,
      "RL": 1883,
      "0000000": 1884,
      "Status": 1885,
      "Count": 1886,
      "MIN": 1887,
      "Ġbit": 1888,
      "Len": 1889,
      "ug": 1890,
      "Ġbardz": 1891,
      "TER": 1892,
      "Ġtego": 1893,
      "Ġwszyst": 1894,
      "BUG": 1895,
      "ada": 1896,
      "Item": 1897,
      "ITE": 1898,
      "device": 1899,
      "acja": 1900,
      "Ġright": 1901,
      "SString": 1902,
      "PAR": 1903,
      "ej": 1904,
      "92": 1905,
      "Ġwhile": 1906,
      "ALL": 1907,
      "Ġoffset": 1908,
      "Ġpop": 1909,
      "Ġ~": 1910,
      "thread": 1911,
      "context": 1912,
      "Ġcurrent": 1913,
      "osz": 1914,
      "desc": 1915,
      "LINE": 1916,
      "Ġprodu": 1917,
      "FOR": 1918,
      "(*": 1919,
      "</": 1920,
      "ĠÅ¼y": 1921,
      "obie": 1922,
      "idx": 1923,
      "ting": 1924,
      "Ġunder": 1925,
      "Ã³b": 1926,
      "Ġgoto": 1927,
      "ates": 1928,
      "DATA": 1929,
      "PH": 1930,
      "51": 1931,
      "Ġfree": 1932,
      "OC": 1933,
      "handle": 1934,
      "aliz": 1935,
      "Ġmax": 1936,
      "GET": 1937,
      "naj": 1938,
      "************************************************************************": 1939,
      "MM": 1940,
      "queue": 1941,
      "nika": 1942,
      "Ġsw": 1943,
      "uch": 1944,
      "Ġpriv": 1945,
      "ĠANY": 1946,
      "sert": 1947,
      "Ġdefault": 1948,
      "Ġstatus": 1949,
      "move": 1950,
      "acyj": 1951,
      "owadz": 1952,
      "Ġq": 1953,
      "As": 1954,
      "Image": 1955,
      "Ġblock": 1956,
      "long": 1957,
      "length": 1958,
      "Ġform": 1959,
      "sce": 1960,
      "ĠNa": 1961,
      "----------------------------------------------------------------": 1962,
      "event": 1963,
      "rod": 1964,
      "Ġhas": 1965,
      "(_": 1966,
      "DEF": 1967,
      "CESS": 1968,
      "Ġstate": 1969,
      "ĠAr": 1970,
      "71": 1971,
      "valid": 1972,
      "cs": 1973,
      "Ġpraw": 1974,
      "Ã³wnie": 1975,
      "ÅĽÄĩ": 1976,
      "ations": 1977,
      "ĠĉĉĠĠ": 1978,
      "Ã³r": 1979,
      "PA": 1980,
      "ero": 1981,
      "Ġ<=": 1982,
      "ĠgÅĤ": 1983,
      "imit": 1984,
      "app": 1985,
      "ien": 1986,
      "Inter": 1987,
      "iled": 1988,
      "net": 1989,
      "dziaÅĤ": 1990,
      "ÅĤaw": 1991,
      "Ġ14": 1992,
      "pdate": 1993,
      "Ġother": 1994,
      "aÅĤo": 1995,
      "LOG": 1996,
      "91": 1997,
      "CI": 1998,
      "noÅĽÄĩ": 1999,
      "ĠktÃ³r": 2000,
      "wiÄħz": 2001,
      "PER": 2002,
      "Ġog": 2003,
      "ork": 2004,
      "ĠbyÅĤ": 2005,
      "ensor": 2006,
      "Ġinput": 2007,
      "ĠNie": 2008,
      "256": 2009,
      "cmp": 2010,
      "Pos": 2011,
      "siÄħ": 2012,
      "tribute": 2013,
      "ady": 2014,
      "iable": 2015,
      "Ġzd": 2016,
      "ux": 2017,
      "FUN": 2018,
      "ices": 2019,
      "Loc": 2020,
      "ics": 2021,
      "93": 2022,
      "pes": 2023,
      "ds": 2024,
      "100": 2025,
      "ĠÅļ": 2026,
      "Ġinform": 2027,
      "Base": 2028,
      "gan": 2029,
      "ĠID": 2030,
      "REF": 2031,
      "Ġkom": 2032,
      "Vector": 2033,
      "Ġpierw": 2034,
      "Ġoperator": 2035,
      "Ġcall": 2036,
      "Ġport": 2037,
      "\")": 2038,
      "Ġusing": 2039,
      "CD": 2040,
      "STATUS": 2041,
      "Ġoverride": 2042,
      "FE": 2043,
      "eta": 2044,
      "yw": 2045,
      "inal": 2046,
      "Request": 2047,
      "Ġne": 2048,
      "sum": 2049,
      "MODE": 2050,
      "'s": 2051,
      "yt": 2052,
      "zyst": 2053,
      "stÄĻp": 2054,
      "Ġcheck": 2055,
      "////////////////////////////////": 2056,
      "By": 2057,
      "Ġerr": 2058,
      "Val": 2059,
      "])": 2060,
      "che": 2061,
      "Ã³l": 2062,
      "her": 2063,
      "Ġmod": 2064,
      "ĠEX": 2065,
      "BL": 2066,
      "pad": 2067,
      "zu": 2068,
      "ĠczÄĻ": 2069,
      "stream": 2070,
      "CALL": 2071,
      "hs": 2072,
      "URE": 2073,
      "RT": 2074,
      "ĠĠĉĉĉ": 2075,
      "Ġany": 2076,
      "utton": 2077,
      "Ġzw": 2078,
      "READ": 2079,
      "upport": 2080,
      "args": 2081,
      "gu": 2082,
      "FIG": 2083,
      "USE": 2084,
      "ONG": 2085,
      "cf": 2086,
      "ns": 2087,
      "ĠPRO": 2088,
      "lease": 2089,
      "cord": 2090,
      "lko": 2091,
      "pol": 2092,
      "Ġjego": 2093,
      "ical": 2094,
      "ning": 2095,
      "ĠReturn": 2096,
      "LOCK": 2097,
      "onie": 2098,
      "uth": 2099,
      "ĠIS": 2100,
      "Ġspecif": 2101,
      "local": 2102,
      "Ġvar": 2103,
      "LEN": 2104,
      "Ref": 2105,
      "sl": 2106,
      "Ġspraw": 2107,
      "Ġmode": 2108,
      "word": 2109,
      "toc": 2110,
      "Ġmiejsc": 2111,
      "Ġprivate": 2112,
      "Ġmay": 2113,
      "owany": 2114,
      "ĠtakÅ¼e": 2115,
      "âĢĵ": 2116,
      "import": 2117,
      "Ġem": 2118,
      "vm": 2119,
      "arsz": 2120,
      "req": 2121,
      "ierz": 2122,
      "link": 2123,
      "Ġme": 2124,
      "roller": 2125,
      "nonatomic": 2126,
      "czÄħ": 2127,
      "self": 2128,
      "Ġone": 2129,
      "Handle": 2130,
      "ĠAR": 2131,
      "WR": 2132,
      "ĠĉĉĠĠĠ": 2133,
      "esz": 2134,
      "ttp": 2135,
      "anych": 2136,
      "ifier": 2137,
      "lot": 2138,
      "Device": 2139,
      "rak": 2140,
      "With": 2141,
      "Ġnad": 2142,
      "Ġ>>": 2143,
      "ĠNS": 2144,
      "Ġfil": 2145,
      "Ġmust": 2146,
      "ĠAll": 2147,
      "ocket": 2148,
      "cmd": 2149,
      "Ġelement": 2150,
      "Ġut": 2151,
      "Ġ11": 2152,
      "FLA": 2153,
      "For": 2154,
      "nection": 2155,
      "XX": 2156,
      "IFT": 2157,
      ")))": 2158,
      "Map": 2159,
      "dec": 2160,
      "Ġsie": 2161,
      "onent": 2162,
      "mask": 2163,
      "Desc": 2164,
      "anager": 2165,
      "priv": 2166,
      "dition": 2167,
      "WORD": 2168,
      "Ġyou": 2169,
      "ĠteÅ¼": 2170,
      "aÅĤy": 2171,
      "UD": 2172,
      "kÄĻ": 2173,
      "tl": 2174,
      "jÄħce": 2175,
      "Ġenum": 2176,
      "ÅĽcie": 2177,
      "ONE": 2178,
      "ĠÅĽwi": 2179,
      "czas": 2180,
      "ALSE": 2181,
      "ARG": 2182,
      "ailed": 2183,
      "utex": 2184,
      "Config": 2185,
      "ĠAl": 2186,
      "Ġ13": 2187,
      "Ġ/*!": 2188,
      "Ġfol": 2189,
      "ixel": 2190,
      "Ġhave": 2191,
      "This": 2192,
      "ĠktÃ³ry": 2193,
      "TW": 2194,
      "Ġimp": 2195,
      "Ġshould": 2196,
      "Th": 2197,
      "},{": 2198,
      "BE": 2199,
      "oken": 2200,
      "Ġcount": 2201,
      "Mem": 2202,
      "Ġtylko": 2203,
      "ILITY": 2204,
      "://": 2205,
      "oÅĦ": 2206,
      "INFO": 2207,
      "hash": 2208,
      "sizeof": 2209,
      "Ġoutput": 2210,
      "Ġkole": 2211,
      "Init": 2212,
      "Ġbuf": 2213,
      "Ġzam": 2214,
      "Ġgru": 2215,
      "su": 2216,
      "Ġdevice": 2217,
      "TRA": 2218,
      "ription": 2219,
      "Ġpart": 2220,
      "SB": 2221,
      "Ġsource": 2222,
      "ĠWAR": 2223,
      "ragma": 2224,
      "ner": 2225,
      "ian": 2226,
      "OB": 2227,
      "PRE": 2228,
      "ative": 2229,
      "print": 2230,
      "Ġcom": 2231,
      "nÄĻ": 2232,
      "Dis": 2233,
      "wh": 2234,
      "Class": 2235,
      "Ġtmp": 2236,
      "ĠMA": 2237,
      "Ġline": 2238,
      "item": 2239,
      "Result": 2240,
      "reen": 2241,
      "Ġper": 2242,
      "Mode": 2243,
      "bs": 2244,
      "pisy": 2245,
      "bol": 2246,
      "MEM": 2247,
      "Ġ-(": 2248,
      "rodz": 2249,
      "KEY": 2250,
      "ĠEx": 2251,
      "ATION": 2252,
      "ng": 2253,
      "oz": 2254,
      "oby": 2255,
      "Message": 2256,
      "Ġrodz": 2257,
      "\\\"": 2258,
      "ĠmoÅ¼e": 2259,
      "Ġdom": 2260,
      "text": 2261,
      "Ġgl": 2262,
      "PU": 2263,
      "(),": 2264,
      "cpy": 2265,
      "ender": 2266,
      "PL": 2267,
      "trz": 2268,
      "ception": 2269,
      "OS": 2270,
      "cu": 2271,
      "Def": 2272,
      "cast": 2273,
      "Table": 2274,
      "Ã³wnieÅ¼": 2275,
      "Pyx": 2276,
      "ego": 2277,
      "Ġwhich": 2278,
      "Point": 2279,
      "dzy": 2280,
      "'t": 2281,
      "pragma": 2282,
      "Ġ17": 2283,
      "oty": 2284,
      "ature": 2285,
      "ĠPrze": 2286,
      "Ġwyd": 2287,
      "Ġlength": 2288,
      "ĠÅ¼": 2289,
      "lp": 2290,
      "Ġ//!": 2291,
      "ĠjuÅ¼": 2292,
      "ograf": 2293,
      "uration": 2294,
      "Arg": 2295,
      "kaz": 2296,
      "FILE": 2297,
      "emy": 2298,
      "Ġsystem": 2299,
      "ger": 2300,
      "lik": 2301,
      "ump": 2302,
      "ĠĠĉĉĉĉ": 2303,
      "typename": 2304,
      "Ġarray": 2305,
      "icy": 2306,
      "input": 2307,
      "*,": 2308,
      "CODE": 2309,
      "Ġpoint": 2310,
      "kaÅĦ": 2311,
      "Ġprogram": 2312,
      "II": 2313,
      "Color": 2314,
      "Windows": 2315,
      "Ġlat": 2316,
      "di": 2317,
      "Ġdru": 2318,
      "stwa": 2319,
      "ãģ": 2320,
      "eb": 2321,
      "liw": 2322,
      "%%": 2323,
      "rÄĻ": 2324,
      "niu": 2325,
      "Ġprac": 2326,
      "Ġso": 2327,
      "jon": 2328,
      "Ġbase": 2329,
      "ponse": 2330,
      "stro": 2331,
      "Code": 2332,
      "QU": 2333,
      "ĠwiÄĻ": 2334,
      "Ġwhen": 2335,
      "Se": 2336,
      "Ġmet": 2337,
      "Ġevent": 2338,
      "CTRL": 2339,
      "rupt": 2340,
      "iÄĩ": 2341,
      "col": 2342,
      "virtual": 2343,
      "fp": 2344,
      "Block": 2345,
      "Ġbardzo": 2346,
      "Äħc": 2347,
      "expr": 2348,
      "Ã³Å¼": 2349,
      "Ġ++": 2350,
      "vide": 2351,
      "owo": 2352,
      "war": 2353,
      "kÅĤad": 2354,
      "Ġsoftware": 2355,
      "Ġlata": 2356,
      "ina": 2357,
      "Ġassert": 2358,
      "lis": 2359,
      "ITH": 2360,
      "elf": 2361,
      "ĠrÃ³wnieÅ¼": 2362,
      "Ġreser": 2363,
      "=(": 2364,
      "press": 2365,
      "Ġtrans": 2366,
      "Ġzab": 2367,
      "wal": 2368,
      "PT": 2369,
      "Ġodp": 2370,
      ",&": 2371,
      "sys": 2372,
      "zym": 2373,
      "ply": 2374,
      "ganiz": 2375,
      "quire": 2376,
      "ĠRE": 2377,
      "ally": 2378,
      "owÄħ": 2379,
      "ĠDz": 2380,
      "cÃ³w": 2381,
      "qual": 2382,
      "volatile": 2383,
      "Path": 2384,
      "era": 2385,
      "eters": 2386,
      "actor": 2387,
      "DEBUG": 2388,
      "Ġspr": 2389,
      "ĠWARRAN": 2390,
      "NS": 2391,
      "river": 2392,
      "ĠNG": 2393,
      "CS": 2394,
      "Ġich": 2395,
      "Ġlog": 2396,
      "Ġtypename": 2397,
      "STATE": 2398,
      "Ġonly": 2399,
      "ĠGener": 2400,
      "fl": 2401,
      "eger": 2402,
      "ĠSH": 2403,
      "ĠPrzypisy": 2404,
      "Ġ|=": 2405,
      "Ġ64": 2406,
      "check": 2407,
      "lex": 2408,
      "CHE": 2409,
      "plic": 2410,
      "Ġgener": 2411,
      "SION": 2412,
      "box": 2413,
      "iny": 2414,
      "ower": 2415,
      "Bo": 2416,
      "iÄĻdzy": 2417,
      "TL": 2418,
      "Ġwrite": 2419,
      "interface": 2420,
      "ĠOd": 2421,
      "Ġbud": 2422,
      "ift": 2423,
      "igh": 2424,
      "Ġur": 2425,
      "head": 2426,
      "INTER": 2427,
      "INVAL": 2428,
      "kar": 2429,
      "Ġstan": 2430,
      "ram": 2431,
      "ĠReg": 2432,
      "riptor": 2433,
      "Ġdy": 2434,
      "vec": 2435,
      "Ġinst": 2436,
      "Ġmy": 2437,
      "Ġrequest": 2438,
      "erw": 2439,
      "ĠCon": 2440,
      "****************************************************************************": 2441,
      "frame": 2442,
      "Ġ--": 2443,
      "Ġreserved": 2444,
      "SHIFT": 2445,
      "Ġmu": 2446,
      "BASE": 2447,
      "Ġcal": 2448,
      "sch": 2449,
      "From": 2450,
      "Ġnull": 2451,
      "Ġfollow": 2452,
      "ounter": 2453,
      "ML": 2454,
      "CHAN": 2455,
      "Ġpointer": 2456,
      "THER": 2457,
      "ĠdziaÅĤ": 2458,
      "TX": 2459,
      "ymi": 2460,
      "ommon": 2461,
      "fil": 2462,
      "ank": 2463,
      "current": 2464,
      "ĠĉĉĉĠ": 2465,
      "RESULT": 2466,
      "xx": 2467,
      "());": 2468,
      "create": 2469,
      "mac": 2470,
      "ND": 2471,
      "ĠFOR": 2472,
      "Ġdistribut": 2473,
      "Ġwar": 2474,
      "default": 2475,
      "Is": 2476,
      "Ġaddress": 2477,
      "ename": 2478,
      "Ġregister": 2479,
      "zw": 2480,
      "isz": 2481,
      "FLAG": 2482,
      "rl": 2483,
      "Ġznaj": 2484,
      "00000": 2485,
      "Par": 2486,
      "Ġhandle": 2487,
      "ĠUn": 2488,
      "IE": 2489,
      "Ġhttp": 2490,
      "Ġversion": 2491,
      "Ġ24": 2492,
      "Ġconfig": 2493,
      "Ġfield": 2494,
      "Ġfirst": 2495,
      "ior": 2496,
      "Ġak": 2497,
      "from": 2498,
      "tree": 2499,
      "Ġsrc": 2500,
      "not": 2501,
      "tra": 2502,
      "TP": 2503,
      "Ġ...": 2504,
      "cd": 2505,
      ">&": 2506,
      "MC": 2507,
      "System": 2508,
      "och": 2509,
      "anc": 2510,
      "plication": 2511,
      "ÅĤÄħcz": 2512,
      ">::": 2513,
      "Ġrights": 2514,
      "Qu": 2515,
      "nikÃ³w": 2516,
      "fr": 2517,
      "Ġwyb": 2518,
      "width": 2519,
      "CONT": 2520,
      "ement": 2521,
      "ĠCO": 2522,
      "CCESS": 2523,
      "uro": 2524,
      "ĠÐ": 2525,
      "())": 2526,
      "enu": 2527,
      "ĠNO": 2528,
      "GPIO": 2529,
      "les": 2530,
      "ĠuÅ¼y": 2531,
      "client": 2532,
      "ĠTR": 2533,
      "xffffff": 2534,
      "ä¸": 2535,
      "plus": 2536,
      "iaÅĤa": 2537,
      "god": 2538,
      "Lo": 2539,
      "cej": 2540,
      "IX": 2541,
      "ular": 2542,
      "ABILITY": 2543,
      "Ġwoj": 2544,
      "Log": 2545,
      "otal": 2546,
      "Ġass": 2547,
      "gor": 2548,
      "Ġ100": 2549,
      "tocol": 2550,
      "ĠTO": 2551,
      "Stream": 2552,
      "ĠbÄĻdzie": 2553,
      "tag": 2554,
      "ĠDo": 2555,
      "abled": 2556,
      "Ġjednak": 2557,
      "Ġlu": 2558,
      "VICE": 2559,
      "ses": 2560,
      "Ġnon": 2561,
      "ĠĉĠĠĠĠ": 2562,
      "Number": 2563,
      "VENT": 2564,
      "kÄħ": 2565,
      "Ġmessage": 2566,
      "fc": 2567,
      "ÄĻd": 2568,
      "dem": 2569,
      "ÅĽli": 2570,
      "so": 2571,
      "Frame": 2572,
      "aniu": 2573,
      "orzyst": 2574,
      ",\"": 2575,
      "user": 2576,
      "NUM": 2577,
      "iego": 2578,
      "Of": 2579,
      "Ġoption": 2580,
      "Ġalloc": 2581,
      "Ġ*,": 2582,
      "Ġbut": 2583,
      "Ġmiesz": 2584,
      "DF": 2585,
      "Ġmemory": 2586,
      "ga": 2587,
      "OFF": 2588,
      "Tr": 2589,
      "Ġ(((": 2590,
      "Ġwid": 2591,
      "Ġam": 2592,
      "Ġperm": 2593,
      "chodz": 2594,
      "ĠTo": 2595,
      "raj": 2596,
      "BOOL": 2597,
      "me": 2598,
      "lean": 2599,
      "kon": 2600,
      "edia": 2601,
      "*(": 2602,
      "unit": 2603,
      "SER": 2604,
      "rap": 2605,
      "Ġwithout": 2606,
      "jÄħcych": 2607,
      "Ġtable": 2608,
      "Ġrze": 2609,
      "struction": 2610,
      "arszaw": 2611,
      "METH": 2612,
      "OW": 2613,
      "MAT": 2614,
      "ibr": 2615,
      "rypt": 2616,
      "lek": 2617,
      "Form": 2618,
      "ĠbyÄĩ": 2619,
      "ĠcaÅĤ": 2620,
      "Field": 2621,
      "Ġuser": 2622,
      "open": 2623,
      "tail": 2624,
      "MENT": 2625,
      "Model": 2626,
      "Ġwiel": 2627,
      "entr": 2628,
      "ome": 2629,
      "CLK": 2630,
      "udio": 2631,
      "MB": 2632,
      "iad": 2633,
      "oundation": 2634,
      "Input": 2635,
      "ĠSoftware": 2636,
      "enum": 2637,
      "attr": 2638,
      "Pr": 2639,
      "uct": 2640,
      "DIS": 2641,
      "Ġjej": 2642,
      "date": 2643,
      "ĠPod": 2644,
      "Ġbytes": 2645,
      "ãĤ": 2646,
      "Ġpor": 2647,
      "resent": 2648,
      "Ġsign": 2649,
      "ĠBO": 2650,
      "output": 2651,
      "wiÄĻ": 2652,
      "env": 2653,
      "goto": 2654,
      "ĠOb": 2655,
      "ĠĠĉĠ": 2656,
      "(!": 2657,
      "Ġed": 2658,
      "cv": 2659,
      "acje": 2660,
      "atur": 2661,
      "Ġ`": 2662,
      "ĠkaÅ¼": 2663,
      "jal": 2664,
      "')": 2665,
      "lep": 2666,
      "Ġbu": 2667,
      "ãĥ": 2668,
      "lection": 2669,
      "Ġmog": 2670,
      "ension": 2671,
      "call": 2672,
      "scy": 2673,
      "Or": 2674,
      "ili": 2675,
      "ĠwÅĤ": 2676,
      "CB": 2677,
      "run": 2678,
      "itialize": 2679,
      "FFFF": 2680,
      "Ġmi": 2681,
      "Ġcur": 2682,
      "Read": 2683,
      "ility": 2684,
      "ĠÅĤ": 2685,
      "ely": 2686,
      "sem": 2687,
      "szych": 2688,
      "cap": 2689,
      "ider": 2690,
      "Ġfollowing": 2691,
      "ĠCz": 2692,
      "SW": 2693,
      "sm": 2694,
      "Handler": 2695,
      "101": 2696,
      "Ġpi": 2697,
      "ages": 2698,
      "':": 2699,
      "core": 2700,
      "SUCCESS": 2701,
      "ted": 2702,
      "function": 2703,
      "message": 2704,
      "Lean": 2705,
      "ĠAND": 2706,
      "Ġ\"%": 2707,
      "ktor": 2708,
      "Ġsy": 2709,
      "IGHT": 2710,
      "ible": 2711,
      "NU": 2712,
      "eniu": 2713,
      "params": 2714,
      "reated": 2715,
      "Ġpe": 2716,
      "xffff": 2717,
      "Ġnext": 2718,
      "Ġdob": 2719,
      "ins": 2720,
      "last": 2721,
      "dir": 2722,
      "kich": 2723,
      "waÅ¼": 2724,
      "Ġmethod": 2725,
      "kach": 2726,
      "Ġsym": 2727,
      "spec": 2728,
      "Ġvalues": 2729,
      "RX": 2730,
      "ĠzÅĤ": 2731,
      "ÅĽmy": 2732,
      "Ġwas": 2733,
      "Ġzas": 2734,
      ")));": 2735,
      "METHOD": 2736,
      "tern": 2737,
      "org": 2738,
      "ived": 2739,
      "CFG": 2740,
      "MAC": 2741,
      "ADDR": 2742,
      "ÅĽnie": 2743,
      "........": 2744,
      "Ġfir": 2745,
      "Controller": 2746,
      "kiem": 2747,
      "SO": 2748,
      "ĠmoÅ¼na": 2749,
      "DL": 2750,
      "itor": 2751,
      "ification": 2752,
      "ASSERT": 2753,
      "EE": 2754,
      "inary": 2755,
      "Col": 2756,
      "Ġprint": 2757,
      ">>": 2758,
      "Ġcontain": 2759,
      "Ġdi": 2760,
      "Trans": 2761,
      "ward": 2762,
      "ĠBy": 2763,
      "group": 2764,
      "Ġthread": 2765,
      "zent": 2766,
      "Ġmie": 2767,
      "Create": 2768,
      "PS": 2769,
      "Local": 2770,
      "/**": 2771,
      "ernel": 2772,
      "ormal": 2773,
      "Ġpa": 2774,
      "(\"%": 2775,
      "siÄĻ": 2776,
      "Length": 2777,
      "BY": 2778,
      "now": 2779,
      "atu": 2780,
      "Ġ30": 2781,
      "Ġzm": 2782,
      "istrz": 2783,
      "Ġten": 2784,
      "ayer": 2785,
      "zem": 2786,
      "Ġag": 2787,
      "mutex": 2788,
      "ĠĉĉĉĠĠ": 2789,
      "lect": 2790,
      "arm": 2791,
      "<<<<": 2792,
      "Ġ->": 2793,
      "nymi": 2794,
      "ĠLI": 2795,
      "asy": 2796,
      "temp": 2797,
      "OBJ": 2798,
      "MAP": 2799,
      "Ġvector": 2800,
      "czÄĻ": 2801,
      "Sub": 2802,
      "Ġpowie": 2803,
      "nÄĻtrz": 2804,
      "inc": 2805,
      "///": 2806,
      "request": 2807,
      "ĠAdd": 2808,
      "Ġlast": 2809,
      "ĠMar": 2810,
      "esh": 2811,
      "server": 2812,
      "STRING": 2813,
      "oper": 2814,
      "ertex": 2815,
      "idget": 2816,
      "Ġ/**<": 2817,
      "xy": 2818,
      ".,": 2819,
      "AA": 2820,
      "header": 2821,
      "EM": 2822,
      "CONFIG": 2823,
      "has": 2824,
      "INIT": 2825,
      "0000000000000000": 2826,
      "Ġdw": 2827,
      "rot": 2828,
      "Ġdesc": 2829,
      "ECT": 2830,
      "TION": 2831,
      "host": 2832,
      "Ã³d": 2833,
      "ape": 2834,
      "ulti": 2835,
      "only": 2836,
      "ts": 2837,
      "ĠSystem": 2838,
      "copy": 2839,
      "AGE": 2840,
      "PUT": 2841,
      "IND": 2842,
      "order": 2843,
      "trans": 2844,
      "imp": 2845,
      "byte": 2846,
      "Ġgmin": 2847,
      "stroy": 2848,
      "Ġkil": 2849,
      "]*": 2850,
      "Manager": 2851,
      "color": 2852,
      "ten": 2853,
      "ĠSOF": 2854,
      "kol": 2855,
      "uj": 2856,
      "ĠAn": 2857,
      "Ġlatach": 2858,
      "Ġ'\\": 2859,
      "FAULT": 2860,
      "Ġqu": 2861,
      "ĠFALSE": 2862,
      "Ġ{\"": 2863,
      "LAY": 2864,
      "ĠSh": 2865,
      "ĠPyObject": 2866,
      "TIME": 2867,
      "bits": 2868,
      "bytes": 2869,
      "0001": 2870,
      "Ad": 2871,
      "Ġ25": 2872,
      "Function": 2873,
      "TWARE": 2874,
      "Ġbyte": 2875,
      "met": 2876,
      "Ġvolatile": 2877,
      "Instance": 2878,
      "Ġauto": 2879,
      "DU": 2880,
      "CMD": 2881,
      "view": 2882,
      "ene": 2883,
      "format": 2884,
      "_(": 2885,
      "MI": 2886,
      "Ġtext": 2887,
      "pty": 2888,
      "iven": 2889,
      "Ġcontext": 2890,
      "ENABLE": 2891,
      "Ġpath": 2892,
      "ano": 2893,
      "Ġfprintf": 2894,
      "Ġcor": 2895,
      "Ġkolej": 2896,
      "ffe": 2897,
      "ĠIMP": 2898,
      "ech": 2899,
      "Ġcondition": 2900,
      "Ġpon": 2901,
      "DD": 2902,
      "ĠrÃ³Å¼": 2903,
      "Ġdefine": 2904,
      "cyj": 2905,
      "Ġtej": 2906,
      "ĠWarszaw": 2907,
      "czenia": 2908,
      "Char": 2909,
      "trze": 2910,
      "UINT": 2911,
      "cent": 2912,
      "ĠWITH": 2913,
      "fore": 2914,
      "MT": 2915,
      "TEST": 2916,
      "ĠOr": 2917,
      "NT": 2918,
      "Entry": 2919,
      "the": 2920,
      "ĠJe": 2921,
      "mod": 2922,
      "ĠÅ»": 2923,
      "gi": 2924,
      "ĠSOFTWARE": 2925,
      "TRY": 2926,
      "CHAR": 2927,
      "iss": 2928,
      "','": 2929,
      "ani": 2930,
      "null": 2931,
      "\"),": 2932,
      "raz": 2933,
      "Ġnale": 2934,
      "ĠRes": 2935,
      "ference": 2936,
      "MAGE": 2937,
      "aczy": 2938,
      "Test": 2939,
      "Write": 2940,
      "ĠEn": 2941,
      "praw": 2942,
      "########": 2943,
      "Element": 2944,
      "ĠSee": 2945,
      "Ġind": 2946,
      "]=": 2947,
      "ros": 2948,
      "stwo": 2949,
      "lim": 2950,
      "ĠMo": 2951,
      "orage": 2952,
      "Bu": 2953,
      "gine": 2954,
      "xfe": 2955,
      "ĠGPIO": 2956,
      "ujÄħ": 2957,
      "level": 2958,
      "ÅĤon": 2959,
      "egin": 2960,
      "Ġself": 2961,
      "Ġni": 2962,
      "ond": 2963,
      "On": 2964,
      "ADD": 2965,
      "VALUE": 2966,
      "kn": 2967,
      "pod": 2968,
      "An": 2969,
      "ĠOn": 2970,
      "sty": 2971,
      "Ġmar": 2972,
      "nicz": 2973,
      "Ġru": 2974,
      "Ġcommand": 2975,
      "Ġmap": 2976,
      "hw": 2977,
      "version": 2978,
      "Ġentry": 2979,
      "ono": 2980,
      "cja": 2981,
      "TIES": 2982,
      "Ġgdy": 2983,
      "Ġspe": 2984,
      "nect": 2985,
      "Ġ$": 2986,
      "ĠLO": 2987,
      "tribut": 2988,
      "irect": 2989,
      "ILE": 2990,
      "pend": 2991,
      "Ġswoje": 2992,
      "zego": 2993,
      "fin": 2994,
      "RAY": 2995,
      "Ġpost": 2996,
      "MD": 2997,
      "ĠzwiÄħz": 2998,
      "EC": 2999,
      "ui": 3000,
      "Ġflags": 3001,
      "Ġwrit": 3002,
      "dst": 3003,
      "zÄħ": 3004,
      "lan": 3005,
      "win": 3006,
      "arod": 3007,
      "LONG": 3008,
      "Callback": 3009,
      "push": 3010,
      "ĠÅģ": 3011,
      "PIN": 3012,
      "RC": 3013,
      "sec": 3014,
      "COL": 3015,
      "Ġswitch": 3016,
      "Ġtemp": 3017,
      "Ġpoj": 3018,
      "Ġrun": 3019,
      "rÃ³d": 3020,
      "Ġinfo": 3021,
      "uple": 3022,
      "ibli": 3023,
      "ogle": 3024,
      "Ġonce": 3025,
      "Struct": 3026,
      "Ġimplement": 3027,
      "cznie": 3028,
      "cpu": 3029,
      "ĠsÅĤ": 3030,
      "Ġmiejsce": 3031,
      "ession": 3032,
      "Ġprovide": 3033,
      "wiet": 3034,
      "Ġsame": 3035,
      "AG": 3036,
      "Format": 3037,
      "rb": 3038,
      "tings": 3039,
      "ium": 3040,
      "part": 3041,
      "off": 3042,
      "Address": 3043,
      "onych": 3044,
      "zej": 3045,
      "sd": 3046,
      "Start": 3047,
      "ĠUni": 3048,
      "ĠNSString": 3049,
      "Ġ{}": 3050,
      "ĠTH": 3051,
      "BUF": 3052,
      "Ð°": 3053,
      "Ġact": 3054,
      "shared": 3055,
      "wier": 3056,
      "ĠTRUE": 3057,
      "internal": 3058,
      "EG": 3059,
      "Ġshort": 3060,
      "Ð¾": 3061,
      "pack": 3062,
      "debug": 3063,
      "rx": 3064,
      "Ġneed": 3065,
      "Ġsec": 3066,
      "isk": 3067,
      "pth": 3068,
      "Ġsm": 3069,
      "za": 3070,
      "image": 3071,
      "ĠbyÅĤo": 3072,
      "ait": 3073,
      "olean": 3074,
      "SM": 3075,
      "acjÄĻ": 3076,
      "---": 3077,
      "Ġdnia": 3078,
      "UB": 3079,
      "Line": 3080,
      "gÅĤ": 3081,
      "sor": 3082,
      "ren": 3083,
      "Ġmiast": 3084,
      "ingle": 3085,
      "flag": 3086,
      "czne": 3087,
      "Ġĉĉĉĉĉĉ": 3088,
      "Ġzach": 3089,
      "ĠĉĠĠĠĠĠ": 3090,
      "NI": 3091,
      "End": 3092,
      "------------------------------------------------------------------------": 3093,
      "ĠWARRANTIES": 3094,
      "Ġcreate": 3095,
      "Ġwym": 3096,
      "send": 3097,
      "ÅĽl": 3098,
      "Ġdistributed": 3099,
      "Ġformat": 3100,
      "vis": 3101,
      "owanych": 3102,
      "ĠPAR": 3103,
      "ĠktÃ³ra": 3104,
      "ĠBo": 3105,
      "quired": 3106,
      "entifier": 3107,
      "DMA": 3108,
      "Client": 3109,
      "defined": 3110,
      "td": 3111,
      "Ġinto": 3112,
      "element": 3113,
      "ither": 3114,
      "Ġwys": 3115,
      "COMP": 3116,
      "ienia": 3117,
      "ĠwÅĤa": 3118,
      "(-": 3119,
      "ARD": 3120,
      "fn": 3121,
      "Not": 3122,
      "Ġinit": 3123,
      "EXPORT": 3124,
      "Matrix": 3125,
      "nict": 3126,
      "Ġ___": 3127,
      "register": 3128,
      "Ġcol": 3129,
      "AV": 3130,
      "Level": 3131,
      "VERSION": 3132,
      "New": 3133,
      "ĠPr": 3134,
      "ĠReturns": 3135,
      "ÅĤoÅ¼": 3136,
      "szt": 3137,
      "Ġph": 3138,
      "ĠÂ": 3139,
      "\"},": 3140,
      "ĠSer": 3141,
      "Ġframe": 3142,
      "sza": 3143,
      "Ġobj": 3144,
      "WIN": 3145,
      "User": 3146,
      "flow": 3147,
      "owana": 3148,
      "oder": 3149,
      "FC": 3150,
      "olumn": 3151,
      "800": 3152,
      "prowadz": 3153,
      "CTL": 3154,
      "inue": 3155,
      "top": 3156,
      "Ġnaw": 3157,
      "Ġfail": 3158,
      "Ġprocess": 3159,
      "Ġorganiz": 3160,
      "rem": 3161,
      "ĠFor": 3162,
      "first": 3163,
      "tor": 3164,
      "Ġ(\"": 3165,
      "Ġheader": 3166,
      "Ġdro": 3167,
      "Ġtarget": 3168,
      "pha": 3169,
      "Ġgr": 3170,
      "arzy": 3171,
      "Ed": 3172,
      "uto": 3173,
      "Command": 3174,
      "COM": 3175,
      "CHECK": 3176,
      "number": 3177,
      "terator": 3178,
      "Ġgdzie": 3179,
      "FLO": 3180,
      "Ġrece": 3181,
      "Ġodpowie": 3182,
      "Const": 3183,
      ".\\": 3184,
      "tach": 3185,
      "PM": 3186,
      "Offset": 3187,
      "czeg": 3188,
      "atform": 3189,
      "stw": 3190,
      "Ġdod": 3191,
      "ĠPublic": 3192,
      "OM": 3193,
      "pool": 3194,
      "Ġav": 3195,
      "ciÄħ": 3196,
      "~~": 3197,
      "store": 3198,
      "rd": 3199,
      "DED": 3200,
      "Ġwykon": 3201,
      "ĠTh": 3202,
      "Ġmore": 3203,
      "ĠĉĉĉĠĠĠ": 3204,
      "Ġpas": 3205,
      "Call": 3206,
      "Ġgiven": 3207,
      "ografia": 3208,
      "__,": 3209,
      "quence": 3210,
      "xFE": 3211,
      "Ġtran": 3212,
      "eszcze": 3213,
      "gin": 3214,
      "Ġdot": 3215,
      "board": 3216,
      "Ġnow": 3217,
      "close": 3218,
      "layer": 3219,
      "ission": 3220,
      "No": 3221,
      "Ġhist": 3222,
      "RET": 3223,
      "Ġtrze": 3224,
      "cal": 3225,
      "ibrary": 3226,
      "Ġitem": 3227,
      "ENSE": 3228,
      "NSString": 3229,
      "argv": 3230,
      "ĠCont": 3231,
      "Ġmsg": 3232,
      "action": 3233,
      "HA": 3234,
      "ope": 3235,
      "stack": 3236,
      "ĠĠĉĠĠ": 3237,
      "Ġsobie": 3238,
      "til": 3239,
      "szej": 3240,
      "Ġsupport": 3241,
      ")),": 3242,
      "Ðµ": 3243,
      "Ġlin": 3244,
      "ĠWe": 3245,
      "Ġfailed": 3246,
      ":%": 3247,
      "ĠUSE": 3248,
      "REQ": 3249,
      "Ġcie": 3250,
      "ury": 3251,
      "sr": 3252,
      "HAND": 3253,
      "address": 3254,
      "TS": 3255,
      "Ġosob": 3256,
      "api": 3257,
      "Ġstat": 3258,
      "tyw": 3259,
      "IV": 3260,
      "PY": 3261,
      "Ph": 3262,
      "Option": 3263,
      "Ġhash": 3264,
      "The": 3265,
      "ĠNo": 3266,
      "ĠNOT": 3267,
      "Ġfin": 3268,
      "IVE": 3269,
      "ciu": 3270,
      "Ġab": 3271,
      "Ġproje": 3272,
      "Ġniez": 3273,
      "adzie": 3274,
      "Ġptr": 3275,
      "ĉĉĉĉĉĉĉĉ": 3276,
      "channel": 3277,
      "Ġpot": 3278,
      "resh": 3279,
      "Ġstop": 3280,
      "ating": 3281,
      "Ġsuccess": 3282,
      "_.": 3283,
      "etwork": 3284,
      "Ġmain": 3285,
      "FD": 3286,
      "Source": 3287,
      "ors": 3288,
      "ev": 3289,
      "Group": 3290,
      "stderr": 3291,
      "Ġwork": 3292,
      "Global": 3293,
      "left": 3294,
      "PD": 3295,
      "inst": 3296,
      "szym": 3297,
      "Ġrc": 3298,
      "ĉĠ": 3299,
      "Ġum": 3300,
      "Ġrel": 3301,
      "update": 3302,
      "while": 3303,
      "ĠskÅĤad": 3304,
      "cfg": 3305,
      "imum": 3306,
      "lose": 3307,
      "hed": 3308,
      "SEL": 3309,
      "gen": 3310,
      "lem": 3311,
      "FS": 3312,
      "df": 3313,
      "Ġprowadz": 3314,
      "mit": 3315,
      "Ġmask": 3316,
      "ĠCl": 3317,
      "Ġ22": 3318,
      "Co": 3319,
      "nicy": 3320,
      "ĠJak": 3321,
      "ROM": 3322,
      "Ġnr": 3323,
      ")*": 3324,
      "ORY": 3325,
      "Obj": 3326,
      "http": 3327,
      "Ġmater": 3328,
      "Ġimage": 3329,
      "ose": 3330,
      "ĠII": 3331,
      "ful": 3332,
      "ution": 3333,
      "MSG": 3334,
      "Ġrow": 3335,
      "FL": 3336,
      "niki": 3337,
      "NONE": 3338,
      "ql": 3339,
      "IMIT": 3340,
      "dc": 3341,
      "kim": 3342,
      "pect": 3343,
      "Button": 3344,
      "pow": 3345,
      "fter": 3346,
      "round": 3347,
      "ĠosÃ³b": 3348,
      "module": 3349,
      "Control": 3350,
      "FN": 3351,
      "PTR": 3352,
      "Ġspos": 3353,
      "Ġnullptr": 3354,
      "dim": 3355,
      "WN": 3356,
      "RD": 3357,
      "ef": 3358,
      "nder": 3359,
      "por": 3360,
      "late": 3361,
      "bove": 3362,
      "Ġnotice": 3363,
      "Ġrad": 3364,
      "Ġ27": 3365,
      "acter": 3366,
      "ĠAd": 3367,
      "tected": 3368,
      "Ġcolor": 3369,
      "Ġsend": 3370,
      "Ġinclude": 3371,
      "åı": 3372,
      "Ġaby": 3373,
      "TC": 3374,
      "GEN": 3375,
      "Ġkraj": 3376,
      "fff": 3377,
      "ENTRY": 3378,
      "ĠAm": 3379,
      "handler": 3380,
      "âĢĿ.": 3381,
      "Ġconditions": 3382,
      "Ġ21": 3383,
      "Ġconstexpr": 3384,
      "Ġexit": 3385,
      "UX": 3386,
      "uid": 3387,
      "Ġvariable": 3388,
      "Ġ*_": 3389,
      "Check": 3390,
      "Response": 3391,
      "ĠGeneral": 3392,
      "GB": 3393,
      "Ġpew": 3394,
      "Ġargument": 3395,
      "istr": 3396,
      "switch": 3397,
      "ĠĉĉĉĉĠ": 3398,
      "ÅĤuÅ¼": 3399,
      "ĠLe": 3400,
      "FFER": 3401,
      "):": 3402,
      "aje": 3403,
      "Ġabove": 3404,
      "Ġzag": 3405,
      "ernet": 3406,
      "Ġkier": 3407,
      "Ġchannel": 3408,
      "ĠmiaÅĤ": 3409,
      "gp": 3410,
      "kl": 3411,
      "used": 3412,
      "BYTE": 3413,
      "Ġstream": 3414,
      "bior": 3415,
      "attribute": 3416,
      "ized": 3417,
      "got": 3418,
      "Ġdev": 3419,
      "ĠBOOL": 3420,
      "pected": 3421,
      "Ġyy": 3422,
      "Ext": 3423,
      "dat": 3424,
      "Output": 3425,
      "Per": 3426,
      "IST": 3427,
      "cache": 3428,
      "Ġgran": 3429,
      "Ġinterface": 3430,
      "ove": 3431,
      "ĠYou": 3432,
      "page": 3433,
      "VM": 3434,
      "target": 3435,
      "Ġfr": 3436,
      "Ġ26": 3437,
      "ixed": 3438,
      "Ġul": 3439,
      "www": 3440,
      "bus": 3441,
      "Ġek": 3442,
      "parent": 3443,
      "ĠBibli": 3444,
      "&&": 3445,
      "cnt": 3446,
      "Ġctx": 3447,
      "Ġjeszcze": 3448,
      "iVar": 3449,
      "ainer": 3450,
      "Ġhere": 3451,
      "rodzeni": 3452,
      "pert": 3453,
      "main": 3454,
      "CLUD": 3455,
      "ĠEuro": 3456,
      "Interface": 3457,
      "legate": 3458,
      "ATTR": 3459,
      "CLUDING": 3460,
      "Ġdoc": 3461,
      "ization": 3462,
      "Ġbl": 3463,
      "MPL": 3464,
      "Ð¸": 3465,
      "Oper": 3466,
      "ĠTE": 3467,
      "ops": 3468,
      "PARAM": 3469,
      "COUN": 3470,
      "angle": 3471,
      "fb": 3472,
      "çļ": 3473,
      "Ġ28": 3474,
      "ĠRed": 3475,
      "Ġback": 3476,
      "sn": 3477,
      "ĠFran": 3478,
      "tbl": 3479,
      "ĠIP": 3480,
      "BC": 3481,
      "DS": 3482,
      "DA": 3483,
      "wid": 3484,
      "çļĦ": 3485,
      "ĠbyÅĤa": 3486,
      "hdr": 3487,
      "NOT": 3488,
      "Ġcy": 3489,
      "Ġ23": 3490,
      "ĠUSB": 3491,
      "Ġpracy": 3492,
      "Ġinformation": 3493,
      "¿½": 3494,
      "ise": 3495,
      "ayout": 3496,
      "iw": 3497,
      "DEC": 3498,
      "';": 3499,
      "Rect": 3500,
      "ajÄħc": 3501,
      "root": 3502,
      "andom": 3503,
      "Ġbr": 3504,
      "Ġcopyright": 3505,
      "Ġimpl": 3506,
      "Ġlimit": 3507,
      "ynam": 3508,
      "=\"": 3509,
      "ICENSE": 3510,
      "Ġzew": 3511,
      "space": 3512,
      "sb": 3513,
      "Ġlevel": 3514,
      "wr": 3515,
      "ÅĽc": 3516,
      "ĠLin": 3517,
      "Ġits": 3518,
      "RECT": 3519,
      "ĠmiÄĻdzy": 3520,
      "clear": 3521,
      "=%": 3522,
      "WA": 3523,
      "WI": 3524,
      "TIM": 3525,
      "Ġkont": 3526,
      "Ġmnie": 3527,
      "Ġ29": 3528,
      "Ġszy": 3529,
      "Instruction": 3530,
      "FUNCTION": 3531,
      "Gener": 3532,
      "Ġvalid": 3533,
      "ï¿½": 3534,
      "scale": 3535,
      "Ġthen": 3536,
      "wiad": 3537,
      "ĠMAX": 3538,
      "util": 3539,
      "szcz": 3540,
      "ĠwspÃ³ÅĤ": 3541,
      "ueue": 3542,
      "Ġbad": 3543,
      "oth": 3544,
      "rect": 3545,
      "ocy": 3546,
      "EP": 3547,
      "Ġdst": 3548,
      "oje": 3549,
      "ĠData": 3550,
      "ish": 3551,
      "iedy": 3552,
      "aniem": 3553,
      "Pol": 3554,
      "Ġposition": 3555,
      "Thread": 3556,
      "Ġopen": 3557,
      "iÄĻki": 3558,
      "token": 3559,
      "tm": 3560,
      "insert": 3561,
      "FUNC": 3562,
      "LIST": 3563,
      "alar": 3564,
      "Max": 3565,
      "Ġ(_": 3566,
      "Channel": 3567,
      "Ġfound": 3568,
      "wise": 3569,
      "ĠDA": 3570,
      "Msg": 3571,
      "Alloc": 3572,
      "ideo": 3573,
      "Bit": 3574,
      "fa": 3575,
      "Render": 3576,
      "Ġet": 3577,
      "Ġpacket": 3578,
      "anged": 3579,
      "inline": 3580,
      "OFFSET": 3581,
      "Ġpodczas": 3582,
      "512": 3583,
      "TIC": 3584,
      "CLASS": 3585,
      "urface": 3586,
      "Ġpodstaw": 3587,
      "ĠStr": 3588,
      "Ġznajdu": 3589,
      "window": 3590,
      "Ġmed": 3591,
      "dest": 3592,
      "bin": 3593,
      "Ã³Åº": 3594,
      "INVALID": 3595,
      "ov": 3596,
      "ez": 3597,
      "dÄħ": 3598,
      "ĠAp": 3599,
      "Ġ2018": 3600,
      "ĠPar": 3601,
      "Ġwidth": 3602,
      "sess": 3603,
      "ĠpÅĤ": 3604,
      "ster": 3605,
      "ĠÅĽrod": 3606,
      "ecz": 3607,
      "zeÅĦ": 3608,
      "Ġspecific": 3609,
      "OID": 3610,
      "over": 3611,
      "nacz": 3612,
      "bb": 3613,
      "ĠOP": 3614,
      "irector": 3615,
      "SPI": 3616,
      "ĠĠĠĉ": 3617,
      "_,": 3618,
      "AF": 3619,
      "prot": 3620,
      "USED": 3621,
      "Ġproble": 3622,
      "Kit": 3623,
      "ĠJest": 3624,
      "Ġbits": 3625,
      "source": 3626,
      "parse": 3627,
      "retval": 3628,
      "mar": 3629,
      "pm": 3630,
      "ready": 3631,
      "00000001": 3632,
      "Ġdoes": 3633,
      "ĠGNU": 3634,
      "Ġcel": 3635,
      "pression": 3636,
      "ĠPR": 3637,
      "ĠInter": 3638,
      "Ġ*(": 3639,
      "ws": 3640,
      "125": 3641,
      "110": 3642,
      "WRITE": 3643,
      "WM": 3644,
      "rad": 3645,
      "Ap": 3646,
      "().": 3647,
      "../": 3648,
      "tc": 3649,
      "memory": 3650,
      "Ġfunc": 3651,
      "ctl": 3652,
      "amera": 3653,
      "nion": 3654,
      "Ġeach": 3655,
      "sport": 3656,
      "Ġ\",": 3657,
      "refix": 3658,
      "Ġaddr": 3659,
      "ailable": 3660,
      "Service": 3661,
      "Header": 3662,
      "Ġ50": 3663,
      "116": 3664,
      "patch": 3665,
      "Ġupdate": 3666,
      "BUFFER": 3667,
      "oci": 3668,
      "Ġsty": 3669,
      "ĠREG": 3670,
      "bud": 3671,
      "Ġprz": 3672,
      "Ġstructure": 3673,
      "Port": 3674,
      "cond": 3675,
      "App": 3676,
      "Ġprovided": 3677,
      "worz": 3678,
      "Filter": 3679,
      "Ġinstance": 3680,
      "Flags": 3681,
      "PAT": 3682,
      "enter": 3683,
      "tw": 3684,
      "exp": 3685,
      "utable": 3686,
      "USB": 3687,
      "Ġparameter": 3688,
      "height": 3689,
      "Ġmatch": 3690,
      "peÅĤ": 3691,
      "owiÄħ": 3692,
      "less": 3693,
      "Ġcallback": 3694,
      "dl": 3695,
      "alne": 3696,
      "ĠCreate": 3697,
      "ayload": 3698,
      "Ġfunk": 3699,
      "FB": 3700,
      "OLD": 3701,
      "Free": 3702,
      "Ġzesp": 3703,
      "START": 3704,
      "Ġwal": 3705,
      "SIG": 3706,
      "ACE": 3707,
      "Ġstar": 3708,
      "ateg": 3709,
      "Ġlicz": 3710,
      "(\"\\": 3711,
      "Ġclient": 3712,
      "114": 3713,
      "ĠktÃ³rych": 3714,
      "ĠkoÅĦ": 3715,
      "Pointer": 3716,
      "!!": 3717,
      "Ġ2017": 3718,
      "Ġdop": 3719,
      "Ġproduk": 3720,
      "ADER": 3721,
      "nio": 3722,
      "sv": 3723,
      "PROTO": 3724,
      "Ġ31": 3725,
      "ĠpeÅĤ": 3726,
      "ĠczÄĻÅĽci": 3727,
      "Ġmodel": 3728,
      "fg": 3729,
      "Ġev": 3730,
      "timer": 3731,
      "Core": 3732,
      "Op": 3733,
      "REE": 3734,
      "ĠHRESULT": 3735,
      "DEVICE": 3736,
      "asic": 3737,
      "abab": 3738,
      "Property": 3739,
      "irection": 3740,
      "dp": 3741,
      "Ġstos": 3742,
      "fx": 3743,
      "Widget": 3744,
      "Ġprzypad": 3745,
      "odzie": 3746,
      "FAIL": 3747,
      "UTE": 3748,
      "Ġeither": 3749,
      "andard": 3750,
      "conn": 3751,
      "Ġpub": 3752,
      "ffect": 3753,
      "ĠWITHOUT": 3754,
      "buff": 3755,
      "eli": 3756,
      "ific": 3757,
      "RAM": 3758,
      "SYS": 3759,
      "inie": 3760,
      "Ġnawet": 3761,
      "obuf": 3762,
      "ĠniÅ¼": 3763,
      "private": 3764,
      "Ġexec": 3765,
      "ĠPolsce": 3766,
      "ju": 3767,
      "ĠzewnÄĻtrz": 3768,
      "range": 3769,
      "111": 3770,
      "ĠNaj": 3771,
      "Ġargs": 3772,
      "czu": 3773,
      "va": 3774,
      "Ġfunctions": 3775,
      "task": 3776,
      "mier": 3777,
      "wÃ³dz": 3778,
      "Ġflag": 3779,
      "callback": 3780,
      "Ġloc": 3781,
      "except": 3782,
      "spon": 3783,
      "Ġwieku": 3784,
      "Ġspecified": 3785,
      "VAR": 3786,
      "Ġaccess": 3787,
      "arÃ³w": 3788,
      "Be": 3789,
      "fik": 3790,
      ")\\": 3791,
      "ELD": 3792,
      "undef": 3793,
      "DEFAULT": 3794,
      "present": 3795,
      "enable": 3796,
      "Ġstore": 3797,
      "âĶ": 3798,
      "Ġkar": 3799,
      "vers": 3800,
      "ĠkrÃ³": 3801,
      "Ġ*);": 3802,
      "Ġmodule": 3803,
      "filename": 3804,
      "ĠSC": 3805,
      "ocze": 3806,
      "stri": 3807,
      "Ġmake": 3808,
      "Memory": 3809,
      "Ã©": 3810,
      "iÄĻksz": 3811,
      "NEL": 3812,
      "FT": 3813,
      "Module": 3814,
      "cre": 3815,
      "Ġå": 3816,
      "Ġraz": 3817,
      "Ġfl": 3818,
      "ĠSY": 3819,
      "aci": 3820,
      "Ġps": 3821,
      "google": 3822,
      "Sec": 3823,
      "itle": 3824,
      "Ġwysok": 3825,
      "Ġkw": 3826,
      "match": 3827,
      "saction": 3828,
      "Ġlocal": 3829,
      "EVENT": 3830,
      "atal": 3831,
      "ĠJed": 3832,
      "Ġmm": 3833,
      "Ġcalled": 3834,
      "Ġmus": 3835,
      "ĠOTHER": 3836,
      "ctrl": 3837,
      "GR": 3838,
      "seq": 3839,
      "tv": 3840,
      "ustom": 3841,
      "ACT": 3842,
      "%^": 3843,
      "Float": 3844,
      "Ġpie": 3845,
      "Ġpowst": 3846,
      "Äħce": 3847,
      "Ġwi": 3848,
      "ĠOUT": 3849,
      "ety": 3850,
      "ĠIm": 3851,
      "Ġel": 3852,
      "stÄĻpu": 3853,
      "pin": 3854,
      "perties": 3855,
      "del": 3856,
      "apter": 3857,
      "ĠComp": 3858,
      "command": 3859,
      "ÄĻp": 3860,
      "ÄĻÅ¼": 3861,
      "Ã³j": 3862,
      "mat": 3863,
      "ĠKom": 3864,
      "Ġnam": 3865,
      "Ġczerw": 3866,
      "Sele": 3867,
      "Current": 3868,
      "Ġvec": 3869,
      "cul": 3870,
      "FR": 3871,
      "Ġzawod": 3872,
      "Box": 3873,
      "ĠpÃ³ÅĤ": 3874,
      "Ġref": 3875,
      "system": 3876,
      "Ġtam": 3877,
      "Ġdest": 3878,
      "Queue": 3879,
      "FP": 3880,
      "rate": 3881,
      "filter": 3882,
      "nx": 3883,
      "aster": 3884,
      "Å¼ej": 3885,
      "Ġsch": 3886,
      "Ġzast": 3887,
      "nienia": 3888,
      "owis": 3889,
      "irectory": 3890,
      "Task": 3891,
      "ĠpoÅĤ": 3892,
      "ĠVector": 3893,
      "imple": 3894,
      "Server": 3895,
      "yg": 3896,
      "eniem": 3897,
      "man": 3898,
      "ULAR": 3899,
      "Ġkomp": 3900,
      "Ġ^": 3901,
      "UID": 3902,
      "Ġ2016": 3903,
      "cr": 3904,
      "ACK": 3905,
      "\\\\": 3906,
      "entity": 3907,
      "URN": 3908,
      "types": 3909,
      "ĠType": 3910,
      "ency": 3911,
      "001": 3912,
      "czest": 3913,
      "seg": 3914,
      "ĠCHE": 3915,
      "Ġtych": 3916,
      "Pre": 3917,
      "ĠBibliografia": 3918,
      "sie": 3919,
      "prop": 3920,
      "ĠString": 3921,
      "ĠRegister": 3922,
      "ĠFunction": 3923,
      "Ġtok": 3924,
      "skÄħ": 3925,
      "Ġrequired": 3926,
      "clk": 3927,
      "ari": 3928,
      "Ġnag": 3929,
      "exit": 3930,
      "NESS": 3931,
      "INLINE": 3932,
      "âĢĿ,": 3933,
      "stdio": 3934,
      "DECL": 3935,
      "Ġsim": 3936,
      "ĠIs": 3937,
      "ÅĤem": 3938,
      "ĠÅĽwiat": 3939,
      "istrzost": 3940,
      "Ġtech": 3941,
      "cza": 3942,
      "CG": 3943,
      "ĠCheck": 3944,
      "sztaÅĤ": 3945,
      "zek": 3946,
      "RIGHT": 3947,
      "ique": 3948,
      "ious": 3949,
      "Query": 3950,
      "9999": 3951,
      "Hash": 3952,
      "Ġbcm": 3953,
      "dump": 3954,
      "!=": 3955,
      "Ġdzieci": 3956,
      "packet": 3957,
      "IRQ": 3958,
      "TAG": 3959,
      "scan": 3960,
      "Process": 3961,
      "label": 3962,
      "ĠCreated": 3963,
      "ĠPolski": 3964,
      "Ġmac": 3965,
      "ĠSp": 3966,
      "ĠFIT": 3967,
      "CONTRO": 3968,
      "Ġist": 3969,
      "Vertex": 3970,
      "ĠktÃ³rym": 3971,
      "odzi": 3972,
      "zÄħd": 3973,
      "Ġplan": 3974,
      "tab": 3975,
      "Di": 3976,
      "POSE": 3977,
      "begin": 3978,
      "ĠĉĉĉĉĠĠ": 3979,
      "ĠCHECK": 3980,
      "Action": 3981,
      "ciw": 3982,
      "SUPP": 3983,
      "angu": 3984,
      "czeÅĦ": 3985,
      "Ġzad": 3986,
      "osi": 3987,
      "CONST": 3988,
      "ĠmajÄħ": 3989,
      "Ġnau": 3990,
      "Ġreal": 3991,
      "iom": 3992,
      "process": 3993,
      "ule": 3994,
      "inition": 3995,
      "Ġred": 3996,
      "Ġ40": 3997,
      "real": 3998,
      "Ġnim": 3999,
      "ĠĠĉĠĠĠ": 4000,
      "control": 4001,
      "Ġpage": 4002,
      "Ġzal": 4003,
      "Ġmat": 4004,
      "003": 4005,
      "orem": 4006,
      "ĠFree": 4007,
      "Ġdu": 4008,
      "Ġsprze": 4009,
      "strcmp": 4010,
      "Buf": 4011,
      "iterator": 4012,
      "adata": 4013,
      "zÄĻ": 4014,
      "Ġtag": 4015,
      "Ġuw": 4016,
      "ents": 4017,
      "Method": 4018,
      "find": 4019,
      "ĠwÅĤas": 4020,
      "Act": 4021,
      "ÅĦski": 4022,
      "ĠWindow": 4023,
      "model": 4024,
      "proc": 4025,
      "mark": 4026,
      "Update": 4027,
      "Ġthere": 4028,
      "Ġsi": 4029,
      "conf": 4030,
      "Ð½": 4031,
      "bc": 4032,
      "Ġinterrupt": 4033,
      "kry": 4034,
      "omain": 4035,
      "OO": 4036,
      "ojewÃ³dz": 4037,
      "ĠCo": 4038,
      "Tree": 4039,
      "LLU": 4040,
      "Ġfind": 4041,
      "================================================================": 4042,
      "xfc": 4043,
      "synt": 4044,
      "Ġinnych": 4045,
      "etch": 4046,
      "Ġsum": 4047,
      "Ent": 4048,
      "DEX": 4049,
      "tributes": 4050,
      "Ġ*__": 4051,
      "And": 4052,
      "SG": 4053,
      "Ġafter": 4054,
      "UND": 4055,
      "decl": 4056,
      "ĠpiÅĤ": 4057,
      "FACE": 4058,
      "ospod": 4059,
      "Ġlic": 4060,
      "112": 4061,
      "Ġust": 4062,
      "uc": 4063,
      "czegÃ³l": 4064,
      "Ġwart": 4065,
      "Ġbi": 4066,
      "ĠzostaÅĤa": 4067,
      "czny": 4068,
      "ĠCH": 4069,
      "Foundation": 4070,
      "czenie": 4071,
      "bar": 4072,
      "ĠSk": 4073,
      "Ġdrug": 4074,
      "yy": 4075,
      "LIED": 4076,
      "TM": 4077,
      "OBJECT": 4078,
      "Ġload": 4079,
      "ORS": 4080,
      "Ġgroup": 4081,
      "Component": 4082,
      "dziel": 4083,
      "NC": 4084,
      "instance": 4085,
      "ĠMER": 4086,
      "Ġtre": 4087,
      "Ġcmd": 4088,
      "rv": 4089,
      ";}": 4090,
      "ujÄħc": 4091,
      "Ġ-=": 4092,
      "BB": 4093,
      "bd": 4094,
      "__)": 4095,
      "Ġreturns": 4096,
      "Texture": 4097,
      "Ġram": 4098,
      "ĠValue": 4099,
      "Ty": 4100,
      "Min": 4101,
      "QL": 4102,
      "omet": 4103,
      "105": 4104,
      "DEV": 4105,
      "jm": 4106,
      "xbd": 4107,
      "Ġgodz": 4108,
      "Ġ2015": 4109,
      "sto": 4110,
      "Ġotr": 4111,
      "ho": 4112,
      "Ġpotrze": 4113,
      "ĠAL": 4114,
      "Ġnoexcept": 4115,
      "raÅ¼": 4116,
      "ĠACTION": 4117,
      "All": 4118,
      "session": 4119,
      "tails": 4120,
      "Cap": 4121,
      "awia": 4122,
      "Ġlicense": 4123,
      "wÃ³j": 4124,
      "achine": 4125,
      "ĠNum": 4126,
      "Ġtwo": 4127,
      "irq": 4128,
      "URPOSE": 4129,
      "chan": 4130,
      "zysk": 4131,
      "CHANT": 4132,
      "Ġ80": 4133,
      "gener": 4134,
      "SPE": 4135,
      "Ġmatrix": 4136,
      "Ġlink": 4137,
      "ynamic": 4138,
      "erykaÅĦ": 4139,
      "pat": 4140,
      "ĠDAMAGE": 4141,
      "oding": 4142,
      "icie": 4143,
      "Ġnich": 4144,
      "szego": 4145,
      "malloc": 4146,
      "ĠIMPLIED": 4147,
      "igger": 4148,
      "Ġspot": 4149,
      "prev": 4150,
      "CHANTABILITY": 4151,
      "ĠwiÄĻcej": 4152,
      "Pl": 4153,
      "tain": 4154,
      "Ġ(&": 4155,
      "ped": 4156,
      "tkow": 4157,
      "known": 4158,
      "xFC": 4159,
      "HANDLE": 4160,
      "Graph": 4161,
      "ĠFITNESS": 4162,
      "________": 4163,
      "ctionary": 4164,
      "stÄħ": 4165,
      "Ġcontrol": 4166,
      "Mask": 4167,
      "ĠBUT": 4168,
      "ĠIt": 4169,
      "gra": 4170,
      "ĠwiÄĻc": 4171,
      "ĠmÅĤ": 4172,
      "chron": 4173,
      "ĠMERCHANTABILITY": 4174,
      "ĠWIN": 4175,
      "tract": 4176,
      "Part": 4177,
      "ĠPURPOSE": 4178,
      "erved": 4179,
      "uthor": 4180,
      "iczne": 4181,
      "down": 4182,
      "dw": 4183,
      "LY": 4184,
      "Ġ128": 4185,
      "iera": 4186,
      "******************************************************************************": 4187,
      "Default": 4188,
      "izer": 4189,
      "np": 4190,
      "Ġregion": 4191,
      "ĠPH": 4192,
      "Run": 4193,
      "ÑĤ": 4194,
      "ĠOut": 4195,
      "SCR": 4196,
      "Ġtele": 4197,
      "CUR": 4198,
      "ding": 4199,
      "other": 4200,
      "ĠĉĉĠĠĠĠ": 4201,
      "ura": 4202,
      "ified": 4203,
      "Ġunit": 4204,
      "Ġstud": 4205,
      "ĠInc": 4206,
      "\":": 4207,
      "(((": 4208,
      "waÅĤ": 4209,
      "kur": 4210,
      "ls": 4211,
      "waÄĩ": 4212,
      "common": 4213,
      "LOC": 4214,
      "prze": 4215,
      "exec": 4216,
      "Ġthan": 4217,
      "true": 4218,
      "WS": 4219,
      "ĠStan": 4220,
      "mb": 4221,
      "att": 4222,
      "INK": 4223,
      "ĠDWORD": 4224,
      "ÑĢ": 4225,
      "yczne": 4226,
      "istance": 4227,
      "ĠsposÃ³b": 4228,
      "ĠPARTIC": 4229,
      "RPC": 4230,
      "Ġmark": 4231,
      "FIELD": 4232,
      "Ġrange": 4233,
      "SON": 4234,
      "spe": 4235,
      "Ġnajlep": 4236,
      "ktÃ³w": 4237,
      "Ġ/*!<": 4238,
      "DMETHOD": 4239,
      "Ġwrze": 4240,
      "Ġleft": 4241,
      "anguage": 4242,
      "Byte": 4243,
      "tt": 4244,
      "ARGS": 4245,
      "Ġdocument": 4246,
      "pute": 4247,
      "LP": 4248,
      "child": 4249,
      "matrix": 4250,
      "short": 4251,
      "ĠksiÄħ": 4252,
      "Ġæ": 4253,
      "Ã³Åºniej": 4254,
      "owaÅĤa": 4255,
      "false": 4256,
      "Dec": 4257,
      "tom": 4258,
      "resie": 4259,
      "127": 4260,
      "Ġzat": 4261,
      "ĠPre": 4262,
      "Ġmag": 4263,
      "jÄħcy": 4264,
      "wait": 4265,
      "ĠTEST": 4266,
      "TABLE": 4267,
      "egment": 4268,
      "ĠRead": 4269,
      "TEXT": 4270,
      "Ġwindow": 4271,
      "wania": 4272,
      "Addr": 4273,
      "Ġclear": 4274,
      "ITION": 4275,
      "CLU": 4276,
      "Ġrozpo": 4277,
      "ĠPARTICULAR": 4278,
      "lab": 4279,
      "ĠpoczÄħ": 4280,
      "Ġzro": 4281,
      "ĠKar": 4282,
      "amb": 4283,
      "Engine": 4284,
      "Ġpozost": 4285,
      "ĠLo": 4286,
      "zji": 4287,
      "SPACE": 4288,
      "ĠDB": 4289,
      "pair": 4290,
      "Position": 4291,
      "ĠudziaÅĤ": 4292,
      "imes": 4293,
      "EF": 4294,
      "xfd": 4295,
      "HO": 4296,
      "Dev": 4297,
      "Rem": 4298,
      "ae": 4299,
      "SN": 4300,
      "Ġbeen": 4301,
      "ARY": 4302,
      "ĠduÅ¼": 4303,
      "RESET": 4304,
      "ai": 4305,
      "Ġ2014": 4306,
      "Params": 4307,
      "Ġ2013": 4308,
      "hal": 4309,
      "plicit": 4310,
      "ENCE": 4311,
      "PHY": 4312,
      "Lock": 4313,
      "cjÄĻ": 4314,
      "rid": 4315,
      "Tem": 4316,
      "LAN": 4317,
      "Pa": 4318,
      "Ġopt": 4319,
      "FLOAT": 4320,
      "arr": 4321,
      "Ġstack": 4322,
      "Ġdelete": 4323,
      "Ġwiele": 4324,
      "Inst": 4325,
      "ÄĻzy": 4326,
      "Ġzmi": 4327,
      "owano": 4328,
      "destroy": 4329,
      "ienie": 4330,
      "ciÄĻ": 4331,
      "\"))": 4332,
      "Ġpowin": 4333,
      "option": 4334,
      "Ġfd": 4335,
      "plit": 4336,
      "%%%%": 4337,
      "Ġorder": 4338,
      "Version": 4339,
      "aces": 4340,
      "ĠktÃ³rej": 4341,
      "IGN": 4342,
      "Ġarty": 4343,
      "znacz": 4344,
      "âĢĻ": 4345,
      "pid": 4346,
      "tn": 4347,
      "Ġprev": 4348,
      "\",\"": 4349,
      "Ġbinary": 4350,
      "aaaa": 4351,
      "global": 4352,
      "very": 4353,
      "WE": 4354,
      "json": 4355,
      "Width": 4356,
      "Åºdz": 4357,
      "Ġkiedy": 4358,
      "Ġostat": 4359,
      "RESS": 4360,
      "Ġpixel": 4361,
      "ĠAD": 4362,
      "ĠDECL": 4363,
      "iod": 4364,
      "ĠDIS": 4365,
      "LOAD": 4366,
      "ether": 4367,
      "Resource": 4368,
      "safe": 4369,
      "Ġrespon": 4370,
      "prac": 4371,
      "ĠCONFIG": 4372,
      "211": 4373,
      "ĠTHIS": 4374,
      "akt": 4375,
      "Stat": 4376,
      "ĠzewnÄĻtrzne": 4377,
      "Ġmuzy": 4378,
      "Ġheight": 4379,
      "ĠLIMIT": 4380,
      "hi": 4381,
      "Ġapp": 4382,
      "TK": 4383,
      "Ġĉĉĉĉĉĉĉĉ": 4384,
      "Ġold": 4385,
      "254": 4386,
      "Cur": 4387,
      "ĠSTR": 4388,
      "Ġ[[": 4389,
      "Args": 4390,
      "Ġtu": 4391,
      "Ġdb": 4392,
      ",(": 4393,
      "Ġbefore": 4394,
      "ĠDEF": 4395,
      "Token": 4396,
      "SUPPORT": 4397,
      "ospodar": 4398,
      "ĠbyÅĤy": 4399,
      "place": 4400,
      "fprintf": 4401,
      "Ġczasie": 4402,
      "ĠwrzeÅĽ": 4403,
      "ĠDis": 4404,
      "ialog": 4405,
      "------": 4406,
      "]->": 4407,
      "Next": 4408,
      "erg": 4409,
      "Back": 4410,
      "okup": 4411,
      "ĠList": 4412,
      "Ġprzedstaw": 4413,
      "Delegate": 4414,
      "LIB": 4415,
      "\".": 4416,
      "method": 4417,
      "Com": 4418,
      "ĠmoÅ¼liw": 4419,
      "ĠBA": 4420,
      "Enum": 4421,
      "public": 4422,
      "ĠWiel": 4423,
      "Ġ&=": 4424,
      "Ġud": 4425,
      "ĠAPI": 4426,
      "owoÅĽci": 4427,
      "ric": 4428,
      "ierzch": 4429,
      "Tag": 4430,
      "Ġprotected": 4431,
      "CONTROL": 4432,
      "BLOCK": 4433,
      "Are": 4434,
      "Ġwp": 4435,
      "Ġtry": 4436,
      "IA": 4437,
      "likely": 4438,
      "refer": 4439,
      "wod": 4440,
      "Ġobtain": 4441,
      "errno": 4442,
      "Ġwol": 4443,
      "Func": 4444,
      "Ġcm": 4445,
      "Up": 4446,
      "Ġstrlen": 4447,
      "Do": 4448,
      "sock": 4449,
      "224": 4450,
      "ĠDef": 4451,
      "Ġ</": 4452,
      "socket": 4453,
      "ĠSW": 4454,
      "Ġ48": 4455,
      "ĠAnd": 4456,
      "Range": 4457,
      "Ġqueue": 4458,
      "COUNT": 4459,
      "raint": 4460,
      "PROC": 4461,
      "ĠKon": 4462,
      "ines": 4463,
      "cat": 4464,
      "iend": 4465,
      "Ġfi": 4466,
      "ĠMPI": 4467,
      "rop": 4468,
      "Ġlock": 4469,
      "sig": 4470,
      "sin": 4471,
      "vider": 4472,
      "ĠRoz": 4473,
      "MOD": 4474,
      "stamp": 4475,
      "Ġstycz": 4476,
      "Err": 4477,
      "Ġserver": 4478,
      "Ġenable": 4479,
      "Ġdim": 4480,
      "cznych": 4481,
      "Ġbie": 4482,
      "linux": 4483,
      "cla": 4484,
      "ĠDesc": 4485,
      "Open": 4486,
      "VEL": 4487,
      "ĠgÅĤÃ³w": 4488,
      "verse": 4489,
      "Cell": 4490,
      "Ġpat": 4491,
      "ĠVersion": 4492,
      "pointer": 4493,
      "Ġpers": 4494,
      "115": 4495,
      "Ġbet": 4496,
      "bcm": 4497,
      "stats": 4498,
      "lip": 4499,
      "Ġ60": 4500,
      "ATA": 4501,
      "star": 4502,
      "ĠRedistribut": 4503,
      "Ġdow": 4504,
      "DIO": 4505,
      "names": 4506,
      "1000": 4507,
      "\"));": 4508,
      "ĠbÄĻdÄħ": 4509,
      "tok": 4510,
      "Ġimplied": 4511,
      "ÅĽwiad": 4512,
      "rawa": 4513,
      "UTH": 4514,
      "ĠBCM": 4515,
      "asm": 4516,
      "gress": 4517,
      "oot": 4518,
      "*)(": 4519,
      "imy": 4520,
      "cjon": 4521,
      "signal": 4522,
      "ĠCY": 4523,
      "actory": 4524,
      "Bl": 4525,
      "cis": 4526,
      "NAL": 4527,
      "Ġparent": 4528,
      "kami": 4529,
      "elem": 4530,
      "DP": 4531,
      "ĠLu": 4532,
      "Vec": 4533,
      "options": 4534,
      "192": 4535,
      "ÅĤugi": 4536,
      "ĠLIMITED": 4537,
      "Ġpoprze": 4538,
      "Ġoff": 4539,
      "Ġtermin": 4540,
      "108": 4541,
      "Ġpolity": 4542,
      "zyn": 4543,
      "Ġcen": 4544,
      "Ġodby": 4545,
      "Ġoperation": 4546,
      "tran": 4547,
      "Ġpozy": 4548,
      "sure": 4549,
      "Ġidx": 4550,
      "ORM": 4551,
      "akter": 4552,
      "Ġmodify": 4553,
      "ÅĤugo": 4554,
      "8000": 4555,
      "Ġtop": 4556,
      "arge": 4557,
      "Target": 4558,
      "hesize": 4559,
      "ĠLinki": 4560,
      "acc": 4561,
      "query": 4562,
      "rÃ³Å¼": 4563,
      "NV": 4564,
      "zna": 4565,
      ">,": 4566,
      "ouse": 4567,
      "Ġnp": 4568,
      "ĠspoÅĤ": 4569,
      "FORMAT": 4570,
      "Ġokaz": 4571,
      "Ġpis": 4572,
      "values": 4573,
      "Åºdzier": 4574,
      "104": 4575,
      "Ġallow": 4576,
      "active": 4577,
      "ilt": 4578,
      "AVE": 4579,
      "Ġtree": 4580,
      "Ġparameters": 4581,
      "iÅĽ": 4582,
      "den": 4583,
      "æķ": 4584,
      "EXIT": 4585,
      "Ġmas": 4586,
      "TRACT": 4587,
      "zero": 4588,
      "Parameter": 4589,
      "iec": 4590,
      "Ġwykorzyst": 4591,
      "Ġyour": 4592,
      "protobuf": 4593,
      "Ġznacz": 4594,
      "ĠMin": 4595,
      "ĠSc": 4596,
      "bind": 4597,
      "graph": 4598,
      "ÅĤow": 4599,
      "Bool": 4600,
      "vs": 4601,
      "oru": 4602,
      "cje": 4603,
      ")_": 4604,
      "Async": 4605,
      "Ġbar": 4606,
      "ĠnastÄĻp": 4607,
      "Ġwzgl": 4608,
      "ĠBE": 4609,
      "=_": 4610,
      "ĠmogÄħ": 4611,
      "Ġtra": 4612,
      "PRINT": 4613,
      "Ġip": 4614,
      "template": 4615,
      "Ġreset": 4616,
      "Ġtask": 4617,
      "ground": 4618,
      "Ġhost": 4619,
      "chr": 4620,
      "olume": 4621,
      "ĠWh": 4622,
      "edÅĤug": 4623,
      "Ġargv": 4624,
      "sko": 4625,
      "Ġzb": 4626,
      "ĠmaÅĤ": 4627,
      "ĠNiem": 4628,
      "ling": 4629,
      "HW": 4630,
      "xfb": 4631,
      "loop": 4632,
      "ERS": 4633,
      "sta": 4634,
      "Ġcap": 4635,
      "ĠLIABILITY": 4636,
      "Ġlek": 4637,
      "Ġclock": 4638,
      "mary": 4639,
      "amiÄĻ": 4640,
      "ĠPO": 4641,
      "Ġzero": 4642,
      "remove": 4643,
      "Ġ55": 4644,
      "ĠktÃ³rzy": 4645,
      "ĠFile": 4646,
      "BACK": 4647,
      "bez": 4648,
      "pew": 4649,
      "nich": 4650,
      "Ġorig": 4651,
      "pass": 4652,
      "Ġofer": 4653,
      "synthesize": 4654,
      "alny": 4655,
      "reset": 4656,
      "closed": 4657,
      "oria": 4658,
      "ities": 4659,
      "Descriptor": 4660,
      "dm": 4661,
      "icznych": 4662,
      "pan": 4663,
      "102": 4664,
      ")[": 4665,
      "annot": 4666,
      "Ġroot": 4667,
      "Draw": 4668,
      "124": 4669,
      "INDEX": 4670,
      "ara": 4671,
      "Ġnet": 4672,
      "letion": 4673,
      "ĠCOP": 4674,
      "Ġreturned": 4675,
      "Ġterms": 4676,
      "Ġsez": 4677,
      "Ġszko": 4678,
      "ĠmieszkaÅĦ": 4679,
      "Ġtrzy": 4680,
      "ĠĠĠĠĉ": 4681,
      "ks": 4682,
      "lv": 4683,
      "STRU": 4684,
      "Long": 4685,
      "ialize": 4686,
      "CORE": 4687,
      "Ġcze": 4688,
      "SUB": 4689,
      "Ġimplementation": 4690,
      "Ġproces": 4691,
      "ĠStatus": 4692,
      "wÃ³r": 4693,
      "Ġsier": 4694,
      "URL": 4695,
      "cket": 4696,
      "Ð¾Ð": 4697,
      "ĠciÄħ": 4698,
      "noc": 4699,
      "YPE": 4700,
      "ilder": 4701,
      "Ñģ": 4702,
      "ĠEN": 4703,
      "URCE": 4704,
      "dma": 4705,
      "position": 4706,
      "rel": 4707,
      "ĠSe": 4708,
      "Ġinitial": 4709,
      "ĉĠĠ": 4710,
      "CN": 4711,
      "plusplus": 4712,
      "ĠSam": 4713,
      "Ġwszystkich": 4714,
      "-----": 4715,
      "Ġargc": 4716,
      "ujemy": 4717,
      "ous": 4718,
      "Ġ2011": 4719,
      "Ġry": 4720,
      "rapper": 4721,
      "Ġ35": 4722,
      "ĠjÄĻzy": 4723,
      "vok": 4724,
      "wd": 4725,
      "sample": 4726,
      "readonly": 4727,
      "ĠWoj": 4728,
      "FX": 4729,
      "kiego": 4730,
      "HAL": 4731,
      "zd": 4732,
      "ily": 4733,
      "Ġzmie": 4734,
      "Ġmp": 4735,
      "Connection": 4736,
      "Work": 4737,
      "Link": 4738,
      "Ġlip": 4739,
      "Ġprzeciw": 4740,
      "ĠUrodzeni": 4741,
      "CY": 4742,
      "Ġokre": 4743,
      "ĠpaÅºdzier": 4744,
      "orld": 4745,
      "Ġpan": 4746,
      "cplusplus": 4747,
      "stra": 4748,
      "NA": 4749,
      "xbe": 4750,
      "ÅĤÃ³w": 4751,
      "igned": 4752,
      "counter": 4753,
      "rew": 4754,
      "åĪ": 4755,
      "cial": 4756,
      "acj": 4757,
      "ĠWindows": 4758,
      "ordin": 4759,
      "Ġtotal": 4760,
      "ij": 4761,
      "access": 4762,
      "Ġinitialize": 4763,
      "ĠSPI": 4764,
      "Ġfilter": 4765,
      "tku": 4766,
      "daw": 4767,
      "formation": 4768,
      "Cache": 4769,
      "Ġinternet": 4770,
      "Ġmalloc": 4771,
      "Ġta": 4772,
      "IAL": 4773,
      "onitor": 4774,
      "wyk": 4775,
      "ajÄħce": 4776,
      "Ġsol": 4777,
      "eff": 4778,
      "Ġkobie": 4779,
      "ADC": 4780,
      "Ġexist": 4781,
      "kan": 4782,
      "ĠUI": 4783,
      "Ġobec": 4784,
      "dnia": 4785,
      "cle": 4786,
      "Cmd": 4787,
      "ĠmÃ³w": 4788,
      "ĠRze": 4789,
      "wers": 4790,
      "bp": 4791,
      "ĠCOPY": 4792,
      "owaniu": 4793,
      "400": 4794,
      "kaw": 4795,
      "PLAY": 4796,
      "eno": 4797,
      "with": 4798,
      "ights": 4799,
      "Ġ2012": 4800,
      "214": 4801,
      "Ġdraw": 4802,
      "doc": 4803,
      "ĠArg": 4804,
      "ANCE": 4805,
      "Row": 4806,
      "ensed": 4807,
      "aleÅ¼": 4808,
      "regs": 4809,
      "cki": 4810,
      "pop": 4811,
      "ĠTak": 4812,
      "PK": 4813,
      "Ġdone": 4814,
      "Mod": 4815,
      "ĠFILE": 4816,
      "ignment": 4817,
      "Label": 4818,
      "ĠpÃ³Åºniej": 4819,
      "license": 4820,
      "ĠTy": 4821,
      "Layout": 4822,
      "åĲ": 4823,
      "Ġcop": 4824,
      "Ġstanie": 4825,
      "Iterator": 4826,
      "GTH": 4827,
      "nienie": 4828,
      "Ġdat": 4829,
      "cin": 4830,
      "ĠError": 4831,
      "ĠParam": 4832,
      "ced": 4833,
      "GIN": 4834,
      "ĠSu": 4835,
      "Ġlistop": 4836,
      "side": 4837,
      "rab": 4838,
      "ĠnaleÅ¼y": 4839,
      "5555": 4840,
      "CPU": 4841,
      "Ġszyb": 4842,
      "card": 4843,
      "Ġwielu": 4844,
      "120": 4845,
      "FRA": 4846,
      "gry": 4847,
      "Ġprzygot": 4848,
      "Ġustaw": 4849,
      "Ġnazw": 4850,
      "LEVEL": 4851,
      "Vtbl": 4852,
      "xef": 4853,
      "arze": 4854,
      "ĠAs": 4855,
      "arzÄħ": 4856,
      "unlock": 4857,
      "connect": 4858,
      "produ": 4859,
      "wierdz": 4860,
      "ĠĉĉĉĉĠĠĠ": 4861,
      "Ġprzyj": 4862,
      "erge": 4863,
      "Ġdodat": 4864,
      "Ġprof": 4865,
      "EB": 4866,
      "INED": 4867,
      "License": 4868,
      "ÅĦskiego": 4869,
      "ÅĤowie": 4870,
      "step": 4871,
      "xee": 4872,
      "ministr": 4873,
      "Ġot": 4874,
      "acie": 4875,
      "ination": 4876,
      "PyObject": 4877,
      "rec": 4878,
      "ĠdziaÅĤa": 4879,
      "Ġsee": 4880,
      "////////////////////////////////////////////////////////////////": 4881,
      "stop": 4882,
      "ĠPaÅĦ": 4883,
      "Ġkm": 4884,
      "ÅĤyw": 4885,
      "ture": 4886,
      "Exception": 4887,
      "Ġword": 4888,
      "Ġodpowied": 4889,
      "fi": 4890,
      "ANT": 4891,
      "Ġfinal": 4892,
      "Ġkosz": 4893,
      "Ġdanych": 4894,
      "wia": 4895,
      "driver": 4896,
      "Load": 4897,
      "ĠHe": 4898,
      "Ġcontinue": 4899,
      "ViewController": 4900,
      "ĠCSL": 4901,
      "@@": 4902,
      "xffffffff": 4903,
      "UART": 4904,
      "stdlib": 4905,
      "ojewÃ³dzt": 4906,
      "Ġ34": 4907,
      "encji": 4908,
      "RETURN": 4909,
      "NODE": 4910,
      "ynku": 4911,
      "Record": 4912,
      "etu": 4913,
      "Copy": 4914,
      "impl": 4915,
      "ĠSte": 4916,
      "Timer": 4917,
      "Ġspecjal": 4918,
      "FW": 4919,
      "GA": 4920,
      "ĠJo": 4921,
      "Ġarch": 4922,
      "zych": 4923,
      "ke": 4924,
      "Ġmam": 4925,
      "Session": 4926,
      "ugh": 4927,
      "Debug": 4928,
      "niÄħ": 4929,
      "ãĢ": 4930,
      "Bytes": 4931,
      "Ġfilm": 4932,
      "}}": 4933,
      "zÄħdz": 4934,
      "response": 4935,
      "Ġsin": 4936,
      "czyÅĤ": 4937,
      "Ġlok": 4938,
      "mov": 4939,
      "Ġpass": 4940,
      "ĠLOG": 4941,
      "ĠULONG": 4942,
      "Ġpomoc": 4943,
      "Ġdok": 4944,
      "jÄĻcia": 4945,
      "Ġponad": 4946,
      "Ġrealiz": 4947,
      "bers": 4948,
      "{{": 4949,
      "Parser": 4950,
      "ABI": 4951,
      "******": 4952,
      "ARRAY": 4953,
      "ason": 4954,
      "istribute": 4955,
      "empty": 4956,
      "crypt": 4957,
      "FALSE": 4958,
      "ah": 4959,
      "Ġpt": 4960,
      "ĠÅ»y": 4961,
      "ĠKIND": 4962,
      "109": 4963,
      "Access": 4964,
      "ade": 4965,
      "ings": 4966,
      "Ġfe": 4967,
      "Ġ*((": 4968,
      "Display": 4969,
      "ĠAT": 4970,
      "ĠTe": 4971,
      "Font": 4972,
      "Ġconnection": 4973,
      "Ä¹": 4974,
      "emu": 4975,
      ".</": 4976,
      "Ġ2010": 4977,
      "omin": 4978,
      "TRACE": 4979,
      "Ġinternal": 4980,
      "rs": 4981,
      "comm": 4982,
      "WID": 4983,
      "rg": 4984,
      "ĠBY": 4985,
      "ĠMiej": 4986,
      "Impl": 4987,
      "Ġfiles": 4988,
      "ĠIO": 4989,
      "ĠKl": 4990,
      "delete": 4991,
      "awi": 4992,
      "Register": 4993,
      "Ġlib": 4994,
      "mc": 4995,
      "]]": 4996,
      "CALLTYPE": 4997,
      "\"\\": 4998,
      "Ġdisplay": 4999,
      "TRAN": 5000,
      "ĠÅĽwie": 5001,
      "Ġsamoch": 5002,
      "Ġsymbol": 5003,
      "LD": 5004,
      "tÃ³w": 5005,
      "xbf": 5006,
      "display": 5007,
      "Ġ37": 5008,
      "Ġdebug": 5009,
      "ached": 5010,
      "tries": 5011,
      "Ġ36": 5012,
      "ĠTest": 5013,
      "uÅĤ": 5014,
      "ways": 5015,
      "Ġloop": 5016,
      "ĠConst": 5017,
      "stu": 5018,
      "ĠkaÅ¼de": 5019,
      "CKET": 5020,
      "ructor": 5021,
      "ween": 5022,
      "ĠFoundation": 5023,
      "DBG": 5024,
      "uchar": 5025,
      "Ġklub": 5026,
      "VA": 5027,
      "FORM": 5028,
      "szÄħ": 5029,
      "phy": 5030,
      "3333": 5031,
      "ĠwzglÄĻ": 5032,
      "Ġspace": 5033,
      "rm": 5034,
      "Ġdwa": 5035,
      "iant": 5036,
      "wol": 5037,
      "Page": 5038,
      "ĠCal": 5039,
      "ĠBit": 5040,
      "Bar": 5041,
      "koÅĦ": 5042,
      "ĠOpen": 5043,
      "Ġsignal": 5044,
      "EA": 5045,
      "ĠKrzy": 5046,
      "Stack": 5047,
      "section": 5048,
      "ĠCzy": 5049,
      "ĠUN": 5050,
      "Ġbardziej": 5051,
      "Met": 5052,
      "ryty": 5053,
      "DMETHODCALLTYPE": 5054,
      "egr": 5055,
      "Ġprzypadku": 5056,
      "Ġzdoby": 5057,
      "ament": 5058,
      "mul": 5059,
      "ĠDMA": 5060,
      "Ġnajb": 5061,
      "worzy": 5062,
      "Ġkilka": 5063,
      "Del": 5064,
      "xFFFFFFFF": 5065,
      "rivate": 5066,
      "abs": 5067,
      "ĠCA": 5068,
      "ica": 5069,
      "ĠJan": 5070,
      "Ġchild": 5071,
      "Ġwhere": 5072,
      "Ġĉĉĉĉĉĉĉ": 5073,
      "kiej": 5074,
      "Ġrhs": 5075,
      "Ġnonatomic": 5076,
      "Options": 5077,
      "NG": 5078,
      "ĠjÄħ": 5079,
      "anej": 5080,
      "leanup": 5081,
      "Ret": 5082,
      "Identifier": 5083,
      "Ġhand": 5084,
      "ycznych": 5085,
      "132": 5086,
      "Ġgen": 5087,
      "Det": 5088,
      "Ġes": 5089,
      "ĠwrzeÅĽnia": 5090,
      "RF": 5091,
      "Sw": 5092,
      "MPLE": 5093,
      "ĠTr": 5094,
      "Ġchc": 5095,
      "INTERFACE": 5096,
      "cell": 5097,
      "Ġdon": 5098,
      "Ġsil": 5099,
      "prezent": 5100,
      "ĠNew": 5101,
      "ĠRem": 5102,
      "onej": 5103,
      "tyle": 5104,
      "ĠMO": 5105,
      "dig": 5106,
      "ĠĉĠĠĠĠĠĠ": 5107,
      "Fe": 5108,
      "Ġsample": 5109,
      "Attribute": 5110,
      "imation": 5111,
      "Ġ45": 5112,
      "alnych": 5113,
      "VP": 5114,
      "Ġglobal": 5115,
      "âĶĢ": 5116,
      "iform": 5117,
      "ear": 5118,
      "Ġkwiet": 5119,
      "abase": 5120,
      "Ġput": 5121,
      "ĠEVENT": 5122,
      "Ac": 5123,
      "omoÅĽci": 5124,
      "xaa": 5125,
      "Ġbound": 5126,
      "bum": 5127,
      "ota": 5128,
      "Ġobie": 5129,
      "Ġtakie": 5130,
      "Ġtoken": 5131,
      "pkt": 5132,
      "make": 5133,
      "ĠdziÄĻki": 5134,
      "jo": 5135,
      "release": 5136,
      "ĠĉĉĉĉĉĠ": 5137,
      "ressed": 5138,
      "Ġreceived": 5139,
      "bezpie": 5140,
      "Ġexp": 5141,
      "au": 5142,
      "anego": 5143,
      "epi": 5144,
      "ometry": 5145,
      "Ġzapew": 5146,
      "Ġsierp": 5147,
      "IVER": 5148,
      "CU": 5149,
      "VT": 5150,
      "160": 5151,
      "ĠPl": 5152,
      "PRESS": 5153,
      "ieÅĦ": 5154,
      "Ġhead": 5155,
      "ĠLL": 5156,
      "rior": 5157,
      "APP": 5158,
      "leep": 5159,
      "pej": 5160,
      "Ġ(__": 5161,
      "ĠrÄĻ": 5162,
      "Ġwait": 5163,
      "Has": 5164,
      "sel": 5165,
      "Ġzdr": 5166,
      "Ġpin": 5167,
      "Ġresponse": 5168,
      "Ġsome": 5169,
      "Ġstycznia": 5170,
      "edi": 5171,
      "117": 5172,
      "onu": 5173,
      "interp": 5174,
      "Send": 5175,
      "ĠBIT": 5176,
      "Ġder": 5177,
      "BER": 5178,
      "Ġavailable": 5179,
      "Ġrob": 5180,
      "Ġâ": 5181,
      "ione": 5182,
      "Ġreprezent": 5183,
      "ĠksiÄħÅ¼": 5184,
      "UIKit": 5185,
      "LENGTH": 5186,
      "acity": 5187,
      "DM": 5188,
      "Ġotrzym": 5189,
      "pg": 5190,
      "unku": 5191,
      "Ġassoci": 5192,
      "gpio": 5193,
      "ments": 5194,
      "ora": 5195,
      "ĠÅ¼ycia": 5196,
      "Ġge": 5197,
      "CTOR": 5198,
      "KER": 5199,
      "ĠĉĉĉĠĠĠĠ": 5200,
      "Store": 5201,
      "Ġstrony": 5202,
      "bf": 5203,
      "DECREF": 5204,
      "BUS": 5205,
      "ĠktÃ³rego": 5206,
      "------------------------": 5207,
      "auto": 5208,
      "rÃ³w": 5209,
      "Ġprom": 5210,
      "ruk": 5211,
      "LOW": 5212,
      "ids": 5213,
      "bran": 5214,
      "ius": 5215,
      "Valid": 5216,
      "Äħt": 5217,
      "CRE": 5218,
      "TRUE": 5219,
      "stwie": 5220,
      ".*": 5221,
      "Ġsn": 5222,
      "Ã¡": 5223,
      "ĠSTAT": 5224,
      ")+": 5225,
      "Ġczasu": 5226,
      "ĠHist": 5227,
      "Ġmult": 5228,
      "icle": 5229,
      "trace": 5230,
      "dÄĻ": 5231,
      "ĠUse": 5232,
      "ĠczÅĤon": 5233,
      "Ġmiasta": 5234,
      "Ġmaja": 5235,
      "ÄĻdz": 5236,
      "Container": 5237,
      "ĠASS": 5238,
      "dent": 5239,
      "Ġ33": 5240,
      "DIR": 5241,
      "ĠpaÅĦ": 5242,
      "æķ°": 5243,
      "Static": 5244,
      "1111": 5245,
      "++++": 5246,
      "nolog": 5247,
      "div": 5248,
      "Ġspotk": 5249,
      "CAP": 5250,
      "Env": 5251,
      "reshold": 5252,
      "COLOR": 5253,
      "Ġè": 5254,
      "Ġjeden": 5255,
      "spi": 5256,
      "ĠCG": 5257,
      "pf": 5258,
      "Ġproblem": 5259,
      "Ġrout": 5260,
      "iance": 5261,
      "Äħcych": 5262,
      "iony": 5263,
      "NET": 5264,
      "older": 5265,
      "arza": 5266,
      "*);": 5267,
      "ĠĉĉĠĠĠĠĠ": 5268,
      "Operation": 5269,
      "pose": 5270,
      "Ġdocumentation": 5271,
      "<=": 5272,
      "RST": 5273,
      "ĠdostÄĻp": 5274,
      "Sign": 5275,
      "_[": 5276,
      "ital": 5277,
      "sf": 5278,
      "parser": 5279,
      "Ġview": 5280,
      "imal": 5281,
      "mpty": 5282,
      "iler": 5283,
      "Ġ///<": 5284,
      "BD": 5285,
      "dup": 5286,
      "noÅĽciÄħ": 5287,
      "ĠInput": 5288,
      "Ġpublis": 5289,
      "ĠCom": 5290,
      "Ġdriver": 5291,
      "ĠnaleÅ¼": 5292,
      "Ġuzysk": 5293,
      "limpi": 5294,
      "POS": 5295,
      "ĉĉĉĉĉ": 5296,
      "Protocol": 5297,
      "ategory": 5298,
      "proto": 5299,
      "leted": 5300,
      "iParam": 5301,
      "Vis": 5302,
      "SED": 5303,
      "Ġelek": 5304,
      "Ġ\");": 5305,
      "Util": 5306,
      "Ġ2000": 5307,
      "Ġalready": 5308,
      "Ġ2019": 5309,
      "Ġlabel": 5310,
      "Height": 5311,
      "symbol": 5312,
      "Su": 5313,
      "unique": 5314,
      "term": 5315,
      "Last": 5316,
      "rough": 5317,
      "Ġaction": 5318,
      "lec": 5319,
      "Ġsock": 5320,
      "123": 5321,
      "002": 5322,
      "Ġczyli": 5323,
      "203": 5324,
      "fail": 5325,
      "gorith": 5326,
      "font": 5327,
      "ĠUniwers": 5328,
      "WAR": 5329,
      "QUAL": 5330,
      "Ġinteger": 5331,
      "sku": 5332,
      "jed": 5333,
      "Ġlp": 5334,
      "Ġkolor": 5335,
      "Print": 5336,
      "Ġdel": 5337,
      "Ġtimer": 5338,
      "encie": 5339,
      "Over": 5340,
      "yj": 5341,
      "Ġgra": 5342,
      "Ġwraz": 5343,
      "Ġenv": 5344,
      "ures": 5345,
      "Ġreference": 5346,
      "nim": 5347,
      "rp": 5348,
      "Ġwin": 5349,
      "ä»": 5350,
      "Ġczerwca": 5351,
      "FIX": 5352,
      "Spec": 5353,
      "DIRECT": 5354,
      "ources": 5355,
      "Ġotherwise": 5356,
      "We": 5357,
      "NON": 5358,
      "ĠÅĽwiata": 5359,
      "Ġ202": 5360,
      "Ġsocket": 5361,
      "Ġski": 5362,
      "Ġrecord": 5363,
      "ĠpaÅºdziernika": 5364,
      "Flag": 5365,
      "Ġ\"../": 5366,
      "ranicz": 5367,
      "ĠInst": 5368,
      "Ġ]": 5369,
      "Ġwcze": 5370,
      "ĠRT": 5371,
      "sÅĤ": 5372,
      "Ġuczest": 5373,
      "Ġnic": 5374,
      "Ġempty": 5375,
      "Ġwyn": 5376,
      "Ġtemat": 5377,
      "Menu": 5378,
      "change": 5379,
      "Ġcelu": 5380,
      "Ġ2004": 5381,
      "owski": 5382,
      "Packet": 5383,
      "DT": 5384,
      "Release": 5385,
      "ĠEFI": 5386,
      "asn": 5387,
      "129": 5388,
      "cznej": 5389,
      "Ġpochodz": 5390,
      "record": 5391,
      "Ġ*)&": 5392,
      "(___": 5393,
      "180": 5394,
      "uz": 5395,
      "Pi": 5396,
      "Ġoptions": 5397,
      "nr": 5398,
      "Ġgover": 5399,
      "Ġstron": 5400,
      "lÄħ": 5401,
      "ĠNode": 5402,
      "Ġwod": 5403,
      "Ġ*)(": 5404,
      "202": 5405,
      ")&": 5406,
      "protocol": 5407,
      "rat": 5408,
      "ÄĻt": 5409,
      "SOR": 5410,
      "ĠpoÅĤoÅ¼": 5411,
      "ĠIF": 5412,
      "cert": 5413,
      "Ġide": 5414,
      "nikiem": 5415,
      "onego": 5416,
      "ĠCL": 5417,
      "ĠUART": 5418,
      "unlikely": 5419,
      "Ġprior": 5420,
      "nn": 5421,
      "ÅĤam": 5422,
      "ĠMI": 5423,
      "Ġ();": 5424,
      "Ġ2009": 5425,
      "abil": 5426,
      "Ġpodob": 5427,
      "170": 5428,
      "Ġnormal": 5429,
      "Web": 5430,
      "126": 5431,
      "niÄĻ": 5432,
      "glÄħd": 5433,
      "Ġcache": 5434,
      "ĠDEBUG": 5435,
      "ena": 5436,
      "Collection": 5437,
      "Ġown": 5438,
      "lew": 5439,
      "latego": 5440,
      "ÅĽniej": 5441,
      "connection": 5442,
      "INPUT": 5443,
      "Ġniemie": 5444,
      "total": 5445,
      "ava": 5446,
      "Pool": 5447,
      "Ġfirm": 5448,
      "Ġwyp": 5449,
      "xt": 5450,
      "PATH": 5451,
      "SEC": 5452,
      "Ġhandler": 5453,
      "Return": 5454,
      "Ġ99": 5455,
      "strze": 5456,
      "007": 5457,
      "SSL": 5458,
      "Ġdetails": 5459,
      "Ġpoziom": 5460,
      "ĠFil": 5461,
      "103": 5462,
      "SF": 5463,
      "ĠCor": 5464,
      "kernel": 5465,
      "ĠrozwiÄħz": 5466,
      "SRC": 5467,
      "çĶ": 5468,
      "Ġrodzaj": 5469,
      "<<<<<<<<": 5470,
      "Mac": 5471,
      "Ġparse": 5472,
      "]+": 5473,
      "Ġ1000": 5474,
      "COMM": 5475,
      "Ste": 5476,
      "aga": 5477,
      "ĠNe": 5478,
      "vc": 5479,
      "Ġko": 5480,
      "Ġrepresent": 5481,
      "Ġgrudnia": 5482,
      "IZ": 5483,
      "ĠPer": 5484,
      "bor": 5485,
      "Ġ\"\",": 5486,
      "Ġwszystko": 5487,
      "ike": 5488,
      "Ġmarca": 5489,
      "cka": 5490,
      "HEADER": 5491,
      "EQ": 5492,
      "119": 5493,
      "Ġwszystkie": 5494,
      "Media": 5495,
      "ĠdziaÅĤal": 5496,
      "fmt": 5497,
      "æľ": 5498,
      "Hel": 5499,
      "Settings": 5500,
      "ĠwojewÃ³dzt": 5501,
      "Ġrzeczy": 5502,
      "ĠQu": 5503,
      "Ġtow": 5504,
      "SCRIP": 5505,
      "Ġpierwszy": 5506,
      "ons": 5507,
      "Ġwszystkim": 5508,
      "niku": 5509,
      "CLE": 5510,
      "ĠCOPYRIGHT": 5511,
      "ICT": 5512,
      "niÄĩ": 5513,
      "Ġcho": 5514,
      "imo": 5515,
      "style": 5516,
      "106": 5517,
      "Ġvis": 5518,
      "ĠADC": 5519,
      "Ġwritten": 5520,
      "reed": 5521,
      "can": 5522,
      "ĠzakoÅĦ": 5523,
      "NEXT": 5524,
      "AI": 5525,
      "130": 5526,
      "USER": 5527,
      "Ġmemcpy": 5528,
      "ĠERROR": 5529,
      "Ġkol": 5530,
      "Sym": 5531,
      "âĸ": 5532,
      "SV": 5533,
      "sing": 5534,
      "pb": 5535,
      "Ġdaw": 5536,
      "ĠPointer": 5537,
      "ĠRos": 5538,
      "ĠSU": 5539,
      "ĠBase": 5540,
      "xed": 5541,
      "tek": 5542,
      "Ġiter": 5543,
      "karze": 5544,
      "trl": 5545,
      "rac": 5546,
      "ĠDAMAGES": 5547,
      "Ġcharakter": 5548,
      "ĠNE": 5549,
      "Ġconvert": 5550,
      ")/": 5551,
      "append": 5552,
      "DEFINED": 5553,
      "BITS": 5554,
      "ĠmateriaÅĤ": 5555,
      "atomiast": 5556,
      "Ġchange": 5557,
      "dek": 5558,
      "ĠSO": 5559,
      "olution": 5560,
      "Ġlistopada": 5561,
      "Ġposiad": 5562,
      "limpij": 5563,
      "Ġzacz": 5564,
      "Ġ101": 5565,
      "UNK": 5566,
      "ĠApache": 5567,
      "aÅĤem": 5568,
      "234": 5569,
      "bound": 5570,
      "Idx": 5571,
      "Ġ2008": 5572,
      "requ": 5573,
      "Ġszer": 5574,
      "Ġexcept": 5575,
      "Style": 5576,
      "legÅĤ": 5577,
      "usb": 5578,
      "opol": 5579,
      "search": 5580,
      "Ġkap": 5581,
      "pw": 5582,
      "Track": 5583,
      "xfa": 5584,
      "Ġoko": 5585,
      "MODU": 5586,
      "ĠNot": 5587,
      "Dir": 5588,
      "ĠWARRANTY": 5589,
      "Ġkur": 5590,
      "Ġunion": 5591,
      "ĠĉĉĠĉ": 5592,
      "Internal": 5593,
      "Ġconfiguration": 5594,
      "owali": 5595,
      "ĠName": 5596,
      "Ġjust": 5597,
      "Ġgot": 5598,
      "Ġstronie": 5599,
      "Ġcomponent": 5600,
      "Sp": 5601,
      "just": 5602,
      "ials": 5603,
      "west": 5604,
      "Src": 5605,
      "ktÃ³": 5606,
      "~~~~": 5607,
      "ĠEnable": 5608,
      "ĠkInstruction": 5609,
      "ability": 5610,
      "xdd": 5611,
      "Ġjakie": 5612,
      "LICENSE": 5613,
      "Å¼a": 5614,
      "177": 5615,
      "Ġ\"/": 5616,
      "MODULE": 5617,
      "ste": 5618,
      "lected": 5619,
      "wÃ³ch": 5620,
      "wiÄĻk": 5621,
      "orig": 5622,
      "ĠON": 5623,
      "Doc": 5624,
      "BI": 5625,
      "sync": 5626,
      "Ġkor": 5627,
      "Ġrem": 5628,
      "Ġramach": 5629,
      "Ġja": 5630,
      "Ġsl": 5631,
      "################": 5632,
      "ino": 5633,
      ")-": 5634,
      "IBUT": 5635,
      "Ġpodz": 5636,
      "Ġlibrary": 5637,
      "ĠINCLUDING": 5638,
      "ambda": 5639,
      "Ġwriting": 5640,
      "ĠjeÅĽli": 5641,
      "--;": 5642,
      "exception": 5643,
      "ĠCPU": 5644,
      "Ġ2007": 5645,
      "sam": 5646,
      "ĠASSERT": 5647,
      "adow": 5648,
      "nl": 5649,
      "122": 5650,
      "udni": 5651,
      "Date": 5652,
      "Ġdni": 5653,
      "Provider": 5654,
      "118": 5655,
      "zyj": 5656,
      "Ġmak": 5657,
      "ĠEnd": 5658,
      "SIS": 5659,
      "Ġio": 5660,
      "ges": 5661,
      "Ġparams": 5662,
      "Ġproperty": 5663,
      "pipe": 5664,
      "BR": 5665,
      "gc": 5666,
      "Bits": 5667,
      "144": 5668,
      "Ġcharacter": 5669,
      "300": 5670,
      "Ġdomu": 5671,
      "216": 5672,
      "anÄħ": 5673,
      "AIL": 5674,
      "ĠÅĽw": 5675,
      "Ġdecl": 5676,
      "GRO": 5677,
      "ensions": 5678,
      "139": 5679,
      "shift": 5680,
      "Ġkr": 5681,
      "ottom": 5682,
      "grzy": 5683,
      "ardziej": 5684,
      "TT": 5685,
      "Ġver": 5686,
      "assign": 5687,
      "ĠDO": 5688,
      "ĠPort": 5689,
      "LOB": 5690,
      "onym": 5691,
      "licenses": 5692,
      "Enable": 5693,
      "Ġremove": 5694,
      "Ġlipca": 5695,
      "nak": 5696,
      "Ġkwietnia": 5697,
      "Ġrok": 5698,
      "ipher": 5699,
      "HASH": 5700,
      "ÃĦ": 5701,
      "Ġkup": 5702,
      "Ġtytu": 5703,
      "iag": 5704,
      "uParam": 5705,
      "ĠdÅĤugo": 5706,
      "ostream": 5707,
      "alnej": 5708,
      "ĠPos": 5709,
      "204": 5710,
      "ĠLog": 5711,
      "xdb": 5712,
      "ĠSOC": 5713,
      "Storage": 5714,
      "ĠTime": 5715,
      "Ġnar": 5716,
      "gt": 5717,
      "Ġ2020": 5718,
      "ĠJeÅĽli": 5719,
      "draw": 5720,
      "135": 5721,
      "Ġindic": 5722,
      "Ġassociated": 5723,
      "Pin": 5724,
      "GO": 5725,
      "xis": 5726,
      "sq": 5727,
      "Ġfirmy": 5728,
      "xdf": 5729,
      "Change": 5730,
      "ending": 5731,
      "Ġbetween": 5732,
      "RV": 5733,
      "ĠdwÃ³ch": 5734,
      "Ġ39": 5735,
      "MAN": 5736,
      "ĠLic": 5737,
      "ĠpÅĤy": 5738,
      "cor": 5739,
      "nier": 5740,
      "Shader": 5741,
      "ĠpoÅĽ": 5742,
      "operator": 5743,
      "uster": 5744,
      "urity": 5745,
      "Ġznajduje": 5746,
      "ĠWrite": 5747,
      "ĠPiÅĤ": 5748,
      "...)": 5749,
      "Ġmiejscu": 5750,
      "atol": 5751,
      "Ġalso": 5752,
      "107": 5753,
      "obacz": 5754,
      "ĠSch": 5755,
      "ĠKey": 5756,
      "ĠHAVE": 5757,
      "ĠNote": 5758,
      "240": 5759,
      "alt": 5760,
      "Ġsyn": 5761,
      "Ġcpu": 5762,
      "pixel": 5763,
      "ATED": 5764,
      "ĠDATA": 5765,
      "Meta": 5766,
      "148": 5767,
      "ÅĤat": 5768,
      "LINK": 5769,
      "istrzostw": 5770,
      "gnore": 5771,
      "xce": 5772,
      "kw": 5773,
      "Ġchw": 5774,
      "Å¼eli": 5775,
      "Ġszkol": 5776,
      "Ġmniej": 5777,
      "ude": 5778,
      "wyÅ¼": 5779,
      "NAMESPACE": 5780,
      "Game": 5781,
      "ĠIR": 5782,
      "Ġsierpnia": 5783,
      "dt": 5784,
      "Ġkraju": 5785,
      "PB": 5786,
      "ln": 5787,
      "ĠzaÅĤo": 5788,
      "Elab": 5789,
      "depth": 5790,
      "Ġ\\\"": 5791,
      "Ġdiffer": 5792,
      "ants": 5793,
      "sole": 5794,
      "ĠwaÅ¼": 5795,
      "Ġgospodar": 5796,
      "chunk": 5797,
      "Ġhistor": 5798,
      "ĠPROVI": 5799,
      "Ġpy": 5800,
      "glÄħ": 5801,
      "155": 5802,
      "Ġci": 5803,
      "Ge": 5804,
      "ĠNumber": 5805,
      "screen": 5806,
      "kty": 5807,
      "service": 5808,
      "âĶĢâĶĢ": 5809,
      "EY": 5810,
      "aler": 5811,
      "roc": 5812,
      "dznacz": 5813,
      "vp": 5814,
      "Tra": 5815,
      "Pixel": 5816,
      "chip": 5817,
      "Ġtypes": 5818,
      "ĠszczegÃ³l": 5819,
      "FLAGS": 5820,
      "Ġcounter": 5821,
      "Types": 5822,
      "slot": 5823,
      "oo": 5824,
      "Ġnatur": 5825,
      "mail": 5826,
      "Ġ49": 5827,
      "ĠMem": 5828,
      "uff": 5829,
      "Ġserial": 5830,
      "boolean": 5831,
      "CLI": 5832,
      "Null": 5833,
      "Ġmot": 5834,
      "Real": 5835,
      "Generic": 5836,
      "ĠDI": 5837,
      "Delete": 5838,
      "PF": 5839,
      "Ġsiebie": 5840,
      "222": 5841,
      "INST": 5842,
      "SSAGE": 5843,
      "ĠÅĽred": 5844,
      "ĠamerykaÅĦ": 5845,
      "Mesh": 5846,
      "Sample": 5847,
      "ĠTrans": 5848,
      "Network": 5849,
      "czyÄĩ": 5850,
      "ĠmieszkaÅĦcÃ³w": 5851,
      "Video": 5852,
      "Ġclose": 5853,
      "ategor": 5854,
      "zm": 5855,
      "isters": 5856,
      "Ġoc": 5857,
      "ĠClass": 5858,
      "MR": 5859,
      "amily": 5860,
      "Layer": 5861,
      "ĠMy": 5862,
      "Application": 5863,
      "Ġludzi": 5864,
      ".)": 5865,
      "ĠÅĽwiad": 5866,
      "Space": 5867,
      "LER": 5868,
      "145": 5869,
      "TIMER": 5870,
      "Ġeven": 5871,
      "ista": 5872,
      "ĠEXPRESS": 5873,
      "lt": 5874,
      "apping": 5875,
      "BEGIN": 5876,
      "see": 5877,
      "ĠOper": 5878,
      "Ġchor": 5879,
      "clock": 5880,
      "claimer": 5881,
      "issions": 5882,
      "riter": 5883,
      "Ġkult": 5884,
      "Ġjedy": 5885,
      "cause": 5886,
      "Ġmieszk": 5887,
      "ĠSTDMETHODCALLTYPE": 5888,
      "Ġbegin": 5889,
      "lpVtbl": 5890,
      "ĠPROVIDED": 5891,
      "Ġosoby": 5892,
      "WIDTH": 5893,
      "Ġscan": 5894,
      "rob": 5895,
      "ness": 5896,
      "206": 5897,
      "ISING": 5898,
      "Ġtx": 5899,
      "tuple": 5900,
      "Ġ****************************************************************": 5901,
      "save": 5902,
      "004": 5903,
      "summary": 5904,
      "RED": 5905,
      "acjÄħ": 5906,
      "okie": 5907,
      "ĠcoÅĽ": 5908,
      "MX": 5909,
      "Ġobsz": 5910,
      "ragment": 5911,
      "azd": 5912,
      "ema": 5913,
      "134": 5914,
      "Ġ38": 5915,
      "Ġ&(": 5916,
      "154": 5917,
      "Ġpack": 5918,
      "Ġtro": 5919,
      "PAD": 5920,
      "xde": 5921,
      "Content": 5922,
      "ĠspoÅĤecz": 5923,
      "VR": 5924,
      "Ġ70": 5925,
      "riority": 5926,
      "Ġlep": 5927,
      "133": 5928,
      "sible": 5929,
      "zer": 5930,
      "232": 5931,
      "gorithm": 5932,
      "PAGE": 5933,
      "sim": 5934,
      "Ġstep": 5935,
      "Ġtimeout": 5936,
      "gh": 5937,
      "VOID": 5938,
      "Ġ65": 5939,
      "unki": 5940,
      "121": 5941,
      "ITEM": 5942,
      "Ġsingle": 5943,
      "vision": 5944,
      "Player": 5945,
      "amma": 5946,
      "PG": 5947,
      "REAM": 5948,
      "Ġjo": 5949,
      "ĠSHALL": 5950,
      "entrum": 5951,
      "Ġsport": 5952,
      "Transform": 5953,
      "Ġfull": 5954,
      "Ġzawsze": 5955,
      "Ġrol": 5956,
      "ĠDescription": 5957,
      "Ġdobrze": 5958,
      "Ġ90": 5959,
      "Ġsytu": 5960,
      "ging": 5961,
      "ĠobowiÄħ": 5962,
      "Ġelements": 5963,
      "Ġsztu": 5964,
      "Tuple": 5965,
      "ĠPierw": 5966,
      "cel": 5967,
      "VALID": 5968,
      "Ġpermission": 5969,
      "MAND": 5970,
      "Ġkorzyst": 5971,
      "Tran": 5972,
      "Ġdotycz": 5973,
      "========================================================================": 5974,
      "Match": 5975,
      "Ġman": 5976,
      "rÃ³ci": 5977,
      "ĠczÄĻÅĽÄĩ": 5978,
      "ĠARRAY": 5979,
      "macro": 5980,
      "ĠWHE": 5981,
      "timeout": 5982,
      "ĠLIABLE": 5983,
      "ATOR": 5984,
      "TON": 5985,
      "Ġcomm": 5986,
      "bt": 5987,
      "cer": 5988,
      "ĠwspÃ³l": 5989,
      "xcc": 5990,
      "_)": 5991,
      "INCLUDING": 5992,
      "ktu": 5993,
      "aded": 5994,
      "BF": 5995,
      "cos": 5996,
      "light": 5997,
      "250": 5998,
      "Host": 5999,
      "Ġcontains": 6000,
      "gg": 6001,
      "ÄĻb": 6002,
      "ROW": 6003,
      "Ġmemset": 6004,
      "Ġpowierzch": 6005,
      "termin": 6006,
      "czna": 6007,
      "xab": 6008,
      "Ġturn": 6009,
      "alnie": 6010,
      "Ġdisclaimer": 6011,
      "Ġcell": 6012,
      "ä½": 6013,
      "205": 6014,
      "Ġzg": 6015,
      "ĠokoÅĤo": 6016,
      "chu": 6017,
      "Ġinvalid": 6018,
      "ĠInitialize": 6019,
      "anges": 6020,
      "[(": 6021,
      "xbb": 6022,
      "===": 6023,
      "Ġ//////////////////////////////////////////////////////////////////": 6024,
      "Ġwhether": 6025,
      "Ġauth": 6026,
      "Ġ42": 6027,
      "nica": 6028,
      "rows": 6029,
      "Sch": 6030,
      "Ġ2006": 6031,
      "Empty": 6032,
      "ujÄħce": 6033,
      "Ġzgod": 6034,
      "QUE": 6035,
      "ĠACTIONS": 6036,
      "xi": 6037,
      "nek": 6038,
      "ĠInd": 6039,
      "THREAD": 6040,
      "Ġbezpie": 6041,
      "ĠWHETHER": 6042,
      "rakty": 6043,
      "Ġlanguage": 6044,
      "PLL": 6045,
      "Word": 6046,
      "Ġdecy": 6047,
      "Ġexpress": 6048,
      "STRUCT": 6049,
      "ĠQString": 6050,
      "resource": 6051,
      "Ġklasy": 6052,
      "Bind": 6053,
      "essages": 6054,
      "Ġsprawie": 6055,
      "................": 6056,
      "230": 6057,
      "ï¿½ï¿½": 6058,
      "ĠStart": 6059,
      "nictwa": 6060,
      "Åģ": 6061,
      "bsol": 6062,
      "Ġszk": 6063,
      "Ġniej": 6064,
      "2000": 6065,
      "osen": 6066,
      "ÅĽrÃ³d": 6067,
      "iron": 6068,
      "eeded": 6069,
      "ĠAle": 6070,
      "Ġ44": 6071,
      "137": 6072,
      "unek": 6073,
      "Ġdefinition": 6074,
      "Ġasn": 6075,
      "Ġwers": 6076,
      "ĠRad": 6077,
      "å®": 6078,
      "rasz": 6079,
      "txt": 6080,
      "Ġcopies": 6081,
      "Ġalbo": 6082,
      "Ġrt": 6083,
      "ĠÂ©": 6084,
      "ciel": 6085,
      "apache": 6086,
      "Ġwprowadz": 6087,
      "Ġziem": 6088,
      "atures": 6089,
      "ycznej": 6090,
      "Ġ),": 6091,
      ")\",": 6092,
      "Ġtypu": 6093,
      "Ġoczy": 6094,
      "ĠARISING": 6095,
      "LED": 6096,
      "content": 6097,
      "Ġopis": 6098,
      "ĠBe": 6099,
      "ummy": 6100,
      "ĠwÅĤaÅĽnie": 6101,
      "Down": 6102,
      "Invalid": 6103,
      "AK": 6104,
      "Ġsprzeda": 6105,
      "CONTEXT": 6106,
      "ished": 6107,
      "alnego": 6108,
      "XC": 6109,
      "xac": 6110,
      "kowo": 6111,
      "wane": 6112,
      "ĠObject": 6113,
      "MPI": 6114,
      "nb": 6115,
      "210": 6116,
      "ERRUP": 6117,
      "vo": 6118,
      "Ġadministr": 6119,
      "Ġjednost": 6120,
      "ifo": 6121,
      "FRAME": 6122,
      "rok": 6123,
      "Ġcb": 6124,
      "ĠMed": 6125,
      "ĠCONTRACT": 6126,
      "Ġdir": 6127,
      "Audio": 6128,
      "Ġpermit": 6129,
      "Ġdor": 6130,
      "ĠAt": 6131,
      "138": 6132,
      "LT": 6133,
      "Ġslot": 6134,
      "ĠRedistributions": 6135,
      "Ġhal": 6136,
      "iple": 6137,
      "\">": 6138,
      "FAILURE": 6139,
      "ĠMich": 6140,
      "DIV": 6141,
      "ping": 6142,
      "region": 6143,
      "156": 6144,
      "Location": 6145,
      "Description": 6146,
      "JSON": 6147,
      "Spe": 6148,
      "Ind": 6149,
      "Ġsecond": 6150,
      "Ġnap": 6151,
      "Ġsa": 6152,
      "owoÅĽÄĩ": 6153,
      "ONT": 6154,
      "Ġ(-": 6155,
      "eq": 6156,
      "Ġ()": 6157,
      "ĠNone": 6158,
      "__((": 6159,
      "Unknown": 6160,
      "PRI": 6161,
      "509": 6162,
      "Screen": 6163,
      "*>": 6164,
      "ĠMP": 6165,
      "xae": 6166,
      "rq": 6167,
      "xml": 6168,
      "ĠUpdate": 6169,
      "licz": 6170,
      "ĠÅ¼ad": 6171,
      "second": 6172,
      "ĠÅ¼eby": 6173,
      "oÅĤa": 6174,
      "lua": 6175,
      "!\\": 6176,
      "ĠSER": 6177,
      "ĠMat": 6178,
      "respon": 6179,
      "program": 6180,
      "140": 6181,
      "Ġ59": 6182,
      "136": 6183,
      "Ġsearch": 6184,
      "ĠLICENSE": 6185,
      "yczny": 6186,
      "Ġuwag": 6187,
      "ha": 6188,
      "Socket": 6189,
      "ulator": 6190,
      "ĠIDS": 6191,
      "ĠDy": 6192,
      "Ġobs": 6193,
      "Ġnumer": 6194,
      "stride": 6195,
      "OPEN": 6196,
      "Proc": 6197,
      "ĠHAL": 6198,
      "delay": 6199,
      "GENER": 6200,
      "AMETER": 6201,
      "NING": 6202,
      "Ġinne": 6203,
      "aterial": 6204,
      "ĠWarszawie": 6205,
      "WISE": 6206,
      "Ġenc": 6207,
      "ĠciÄĻ": 6208,
      "ĠSDL": 6209,
      "iltin": 6210,
      "Ġ(%": 6211,
      "Rece": 6212,
      "ĠConfig": 6213,
      "LS": 6214,
      "Pass": 6215,
      "RM": 6216,
      "Changed": 6217,
      "Ġpolski": 6218,
      "ENUM": 6219,
      "vscale": 6220,
      "Variable": 6221,
      "ĠkoÅĽci": 6222,
      "rand": 6223,
      "DITION": 6224,
      "html": 6225,
      "ysical": 6226,
      "Ġquery": 6227,
      "Attr": 6228,
      "164": 6229,
      "Ġrender": 6230,
      "ĠImage": 6231,
      "cursor": 6232,
      "ancel": 6233,
      "post": 6234,
      "xcd": 6235,
      "ĠPom": 6236,
      "150": 6237,
      "Ġkernel": 6238,
      "ĠczÄĻsto": 6239,
      "tile": 6240,
      "ross": 6241,
      "If": 6242,
      "Entity": 6243,
      "way": 6244,
      "å¤": 6245,
      "alpha": 6246,
      "Ġ--------------------------------": 6247,
      "stract": 6248,
      "USH": 6249,
      "ĠOp": 6250,
      "Ġplatform": 6251,
      "xbc": 6252,
      "pv": 6253,
      "ĠWie": 6254,
      "select": 6255,
      "208": 6256,
      "Ġsig": 6257,
      "FNGL": 6258,
      "Ġczter": 6259,
      "liÅ¼": 6260,
      "Ġattribute": 6261,
      "Ġla": 6262,
      "CWindows": 6263,
      "velo": 6264,
      "Ġserw": 6265,
      "]),": 6266,
      "Ġnaz": 6267,
      "descriptor": 6268,
      "Ġklient": 6269,
      "ENTI": 6270,
      "nected": 6271,
      "czni": 6272,
      "ÅĦskiej": 6273,
      "ĠPK": 6274,
      "xec": 6275,
      "FG": 6276,
      "ĠModel": 6277,
      "setup": 6278,
      "æĸ": 6279,
      "åĽ": 6280,
      "IDE": 6281,
      "url": 6282,
      "car": 6283,
      "Ġtakich": 6284,
      "button": 6285,
      "Ð»": 6286,
      "************************": 6287,
      "Ġ56": 6288,
      "000001": 6289,
      "body": 6290,
      "asure": 6291,
      "tych": 6292,
      "005": 6293,
      "skon": 6294,
      "BT": 6295,
      "ĠwieÅĽ": 6296,
      "245": 6297,
      "Ġsze": 6298,
      "Ġprzeprowadz": 6299,
      "cluding": 6300,
      "miot": 6301,
      "upported": 6302,
      "åħ": 6303,
      "Ġns": 6304,
      "argc": 6305,
      "ĠwiÄĻksz": 6306,
      "drv": 6307,
      "Ġcompl": 6308,
      "ĠWarszawa": 6309,
      "ĠPow": 6310,
      "ti": 6311,
      "ĠoÅĽ": 6312,
      "80000000": 6313,
      "Ġinsert": 6314,
      "auth": 6315,
      "Net": 6316,
      "kowe": 6317,
      "ĠXX": 6318,
      "Ġczym": 6319,
      "ĠLudzie": 6320,
      "Ġgat": 6321,
      "ĠVAL": 6322,
      "cts": 6323,
      "Non": 6324,
      "utego": 6325,
      "ĠOutput": 6326,
      "Ġbel": 6327,
      "ĠmÄĻÅ¼": 6328,
      "Ġ(!(": 6329,
      "RG": 6330,
      "Ġtemu": 6331,
      "ĠVal": 6332,
      "Ġexpected": 6333,
      "ĠPan": 6334,
      "Ġmom": 6335,
      "Äħcy": 6336,
      "Ġbus": 6337,
      "MESSAGE": 6338,
      "Ġpowodu": 6339,
      "ĠSPE": 6340,
      "Ġsession": 6341,
      "ĠUSA": 6342,
      "note": 6343,
      "Play": 6344,
      "ĠIndex": 6345,
      "land": 6346,
      "Ġkos": 6347,
      "Ġprojekt": 6348,
      "narod": 6349,
      "ORK": 6350,
      "ĠSIM": 6351,
      "ĠEND": 6352,
      "Parameters": 6353,
      "writ": 6354,
      "ckiego": 6355,
      "xdc": 6356,
      "ĠosiÄħ": 6357,
      "Ġwojny": 6358,
      "ĠSE": 6359,
      "207": 6360,
      "xea": 6361,
      "STEM": 6362,
      "initial": 6363,
      "wanie": 6364,
      "icro": 6365,
      "DWORD": 6366,
      "show": 6367,
      "Ġapplication": 6368,
      "ĠzostaÅĤy": 6369,
      "lat": 6370,
      "ĠdoÅĽwiad": 6371,
      "Ġbecause": 6372,
      "ibility": 6373,
      "diff": 6374,
      "ĠTwo": 6375,
      "arÃ³wno": 6376,
      "Ġlutego": 6377,
      "ĠGmin": 6378,
      "Ġpap": 6379,
      "ĠMi": 6380,
      "ĠOS": 6381,
      "ITS": 6382,
      "Ġdokument": 6383,
      "rocÅĤaw": 6384,
      "Ġang": 6385,
      "render": 6386,
      "MUL": 6387,
      "recv": 6388,
      "Private": 6389,
      "ĠĉĉĉĉĉĠĠ": 6390,
      "ĠZap": 6391,
      "Ġrv": 6392,
      "Factory": 6393,
      "ãĢĤ": 6394,
      "nes": 6395,
      "Ġ77": 6396,
      "Multi": 6397,
      "ĠbiaÅĤ": 6398,
      "Ġdescriptor": 6399,
      "SEQU": 6400,
      "Top": 6401,
      "ĠogÅĤ": 6402,
      "oi": 6403,
      "culate": 6404,
      "Ġponie": 6405,
      "memcpy": 6406,
      "tel": 6407,
      "cn": 6408,
      "Ġokol": 6409,
      "acyjne": 6410,
      "Reader": 6411,
      "320": 6412,
      "Left": 6413,
      "asem": 6414,
      "Ġexplicit": 6415,
      "131": 6416,
      "ĠczÅĤowie": 6417,
      "Ġfriend": 6418,
      "ĠAV": 6419,
      "fields": 6420,
      "tf": 6421,
      "aÅĤe": 6422,
      "Ġfp": 6423,
      "ĠokrÄĻ": 6424,
      "AU": 6425,
      "Ġkilku": 6426,
      "mniej": 6427,
      "Ġkre": 6428,
      "leks": 6429,
      "oro": 6430,
      "ĠpiÄĻ": 6431,
      "168": 6432,
      "igen": 6433,
      "xFD": 6434,
      "244": 6435,
      "Cal": 6436,
      "Ġpal": 6437,
      "eep": 6438,
      "ardware": 6439,
      "Ġrazem": 6440,
      "157": 6441,
      "Failed": 6442,
      "ĠME": 6443,
      "ĠCR": 6444,
      "113": 6445,
      "acze": 6446,
      "ĠHW": 6447,
      "Ġocc": 6448,
      "Ġperform": 6449,
      "plicable": 6450,
      "iskup": 6451,
      "Ġ58": 6452,
      "Ġniego": 6453,
      "iczny": 6454,
      "Ġfinans": 6455,
      "Ġlua": 6456,
      "Ġprofes": 6457,
      "CID": 6458,
      "onÄħ": 6459,
      "full": 6460,
      "Ġva": 6461,
      ">;": 6462,
      "Edit": 6463,
      "Ġnajbardziej": 6464,
      "ĠTer": 6465,
      "ĠdruÅ¼y": 6466,
      "Ġterenie": 6467,
      "Ġbra": 6468,
      "UTO": 6469,
      "Ġgraph": 6470,
      "ĠSub": 6471,
      "CHANNEL": 6472,
      "PROPER": 6473,
      "Ġlocation": 6474,
      "Enc": 6475,
      "Child": 6476,
      "elif": 6477,
      "Ġjson": 6478,
      "ini": 6479,
      "Ġstandard": 6480,
      "ring": 6481,
      "MEMORY": 6482,
      "continue": 6483,
      "Ġ2005": 6484,
      "sort": 6485,
      "serw": 6486,
      "ĠTODO": 6487,
      "ALLOC": 6488,
      "xad": 6489,
      "ozy": 6490,
      "Ġpthread": 6491,
      "ĠTYPE": 6492,
      "ĠprzedsiÄĻ": 6493,
      "wiz": 6494,
      "ĠOTHERWISE": 6495,
      "isÅĤaw": 6496,
      "(%": 6497,
      "oni": 6498,
      "ĠNarod": 6499,
      "ysÅĤ": 6500,
      "pio": 6501,
      "+-": 6502,
      "equal": 6503,
      "Ġwsk": 6504,
      "252": 6505,
      "bg": 6506,
      "Ġlater": 6507,
      "ivity": 6508,
      "Ġ46": 6509,
      "Ġmoc": 6510,
      "Msk": 6511,
      "tls": 6512,
      "XF": 6513,
      "MUX": 6514,
      "ARB": 6515,
      "iagn": 6516,
      "ume": 6517,
      "Ġservice": 6518,
      "arn": 6519,
      "Ġwidz": 6520,
      "ĠDevice": 6521,
      "{\"": 6522,
      "owymi": 6523,
      "ĠLicensed": 6524,
      "xeb": 6525,
      "Ġpublicz": 6526,
      "track": 6527,
      "ĠLub": 6528,
      "ĠwiÄĻk": 6529,
      "points": 6530,
      "ĠCODE": 6531,
      "ĠSET": 6532,
      "coded": 6533,
      "ĠpoczÄħtku": 6534,
      "FFF": 6535,
      "Json": 6536,
      "Ġsamym": 6537,
      "valu": 6538,
      "Ġdirectory": 6539,
      "wyciÄĻ": 6540,
      "HOST": 6541,
      "-------": 6542,
      "ĠTORT": 6543,
      "Ġmal": 6544,
      "ĠiParam": 6545,
      "ĠMu": 6546,
      "mx": 6547,
      "Parse": 6548,
      ".\");": 6549,
      "Ġpoints": 6550,
      "Ġzakup": 6551,
      "ĠSD": 6552,
      "ĠĠĉĉĉĉĉ": 6553,
      "Ġzamiesz": 6554,
      "uty": 6555,
      "Ġdown": 6556,
      "tedy": 6557,
      "ĠIII": 6558,
      "Ġsuch": 6559,
      "ĠPh": 6560,
      "aÅĤam": 6561,
      "ĠNSObject": 6562,
      "ĠZak": 6563,
      "elements": 6564,
      "__);": 6565,
      "AE": 6566,
      "atr": 6567,
      "Clear": 6568,
      "220": 6569,
      "149": 6570,
      "xcb": 6571,
      "hel": 6572,
      "Ġfilename": 6573,
      "Ġdr": 6574,
      "Integer": 6575,
      "CTX": 6576,
      "Rec": 6577,
      "ĠPart": 6578,
      "Unit": 6579,
      "Å¼yÄĩ": 6580,
      "iesiÄĻ": 6581,
      "CAN": 6582,
      "è¿": 6583,
      "ĠOrder": 6584,
      "Arena": 6585,
      "186": 6586,
      "yd": 6587,
      "åŃ": 6588,
      "Ġ47": 6589,
      "Ġdistribution": 6590,
      "Ġbudow": 6591,
      "Ġarguments": 6592,
      "Ġsiedz": 6593,
      "czeniu": 6594,
      "Ġapplicable": 6595,
      "Ġdie": 6596,
      "icznej": 6597,
      "ĠÅĽmier": 6598,
      "yczaj": 6599,
      "('": 6600,
      "cznego": 6601,
      "Ġtrud": 6602,
      "power": 6603,
      "jÄħÅĤ": 6604,
      "Ġnapraw": 6605,
      "uring": 6606,
      "lc": 6607,
      "ĠForm": 6608,
      "AY": 6609,
      "Ġfot": 6610,
      "Ġneg": 6611,
      "ĠsÅĤuÅ¼": 6612,
      "ĠKoÅĽci": 6613,
      "Exec": 6614,
      "Ġpode": 6615,
      "Ġnauk": 6616,
      "Ġ//@": 6617,
      "tyn": 6618,
      "ĠBar": 6619,
      "}},": 6620,
      "dÅĤ": 6621,
      "rawi": 6622,
      "Ġexception": 6623,
      "Ðº": 6624,
      "Ġhw": 6625,
      "biÄĩ": 6626,
      "Ġ256": 6627,
      "ĠVar": 6628,
      "iona": 6629,
      "Ġsupported": 6630,
      "**************************************************************************": 6631,
      "vi": 6632,
      "ĠWil": 6633,
      "Ġprakty": 6634,
      "Ġcore": 6635,
      "Ġdig": 6636,
      "anii": 6637,
      "Jo": 6638,
      "payload": 6639,
      "ĠTIM": 6640,
      "edge": 6641,
      "Names": 6642,
      "ĠwczeÅĽniej": 6643,
      "Ġswoim": 6644,
      "Ã³ry": 6645,
      "Ġsave": 6646,
      "Ġwsze": 6647,
      "xaf": 6648,
      "nown": 6649,
      "iemy": 6650,
      "typedef": 6651,
      "Ġthese": 6652,
      "Ġmil": 6653,
      "iagnost": 6654,
      "ĠPL": 6655,
      "Extension": 6656,
      "ĠHOLD": 6657,
      "ADDRESS": 6658,
      "ĠÅ¼ycie": 6659,
      "ĠMax": 6660,
      "ĠLAB": 6661,
      "ĠaÅ¼": 6662,
      "amin": 6663,
      "Ġlaw": 6664,
      "Ġmon": 6665,
      "ĠwÅĤaÅĽci": 6666,
      "ĠSI": 6667,
      "Ġprezent": 6668,
      "akÃ³w": 6669,
      "ĠswojÄħ": 6670,
      "blk": 6671,
      "ĠKEY": 6672,
      "requency": 6673,
      "math": 6674,
      "Ġkomun": 6675,
      "prefix": 6676,
      "ywat": 6677,
      "eny": 6678,
      "Ġnatomiast": 6679,
      "owanej": 6680,
      "heap": 6681,
      "ĠÅº": 6682,
      "ĠMiast": 6683,
      "ĠwystÄĻpu": 6684,
      "175": 6685,
      "TF": 6686,
      "Ġabout": 6687,
      "Ġeg": 6688,
      "xcf": 6689,
      "iver": 6690,
      "szk": 6691,
      "Tex": 6692,
      "mer": 6693,
      "STREAM": 6694,
      "Ġanon": 6695,
      "159": 6696,
      "Ġthrough": 6697,
      "ĠnastÄĻpnie": 6698,
      "Ġ127": 6699,
      "owanego": 6700,
      "ĠtÅĤ": 6701,
      "ĠVec": 6702,
      "Ġkam": 6703,
      "oÅĽciÄħ": 6704,
      "XE": 6705,
      "Ġpermissions": 6706,
      "hell": 6707,
      "[],": 6708,
      "aru": 6709,
      "expected": 6710,
      "ytu": 6711,
      "142": 6712,
      "wiÅĽcie": 6713,
      "((((": 6714,
      "Ġmoje": 6715,
      "Double": 6716,
      "rody": 6717,
      "_);": 6718,
      "Ġtrzeba": 6719,
      "ĠRep": 6720,
      "Ġbeing": 6721,
      "Ġgenerated": 6722,
      "Ġfunkcjon": 6723,
      "sched": 6724,
      "143": 6725,
      "INCLU": 6726,
      "ribe": 6727,
      "Ġczyn": 6728,
      "Ġzx": 6729,
      "Ġrb": 6730,
      "ĠBu": 6731,
      "Enabled": 6732,
      "Ġ51": 6733,
      "Imp": 6734,
      "ĠMac": 6735,
      "vices": 6736,
      "ĠOk": 6737,
      "GC": 6738,
      "Ġsoc": 6739,
      "ĠPM": 6740,
      "INC": 6741,
      "Ġdec": 6742,
      "ĠGlobal": 6743,
      "Ġpun": 6744,
      "Ġklas": 6745,
      "ĠGe": 6746,
      "ĠLP": 6747,
      "Ġcreated": 6748,
      "165": 6749,
      "Ctx": 6750,
      "moÅ¼": 6751,
      "190": 6752,
      "Ġretain": 6753,
      "ips": 6754,
      "DISABLE": 6755,
      ":\\": 6756,
      "niczy": 6757,
      "Ġliter": 6758,
      "189": 6759,
      "OG": 6760,
      "147": 6761,
      "mon": 6762,
      "UNUSED": 6763,
      "146": 6764,
      "ĠSize": 6765,
      "ĠZmar": 6766,
      "Ġnowe": 6767,
      "lyph": 6768,
      "Ġswoich": 6769,
      "ĠrÃ³w": 6770,
      "Ġ104": 6771,
      "Proxy": 6772,
      "Lib": 6773,
      "atyw": 6774,
      "nictwo": 6775,
      "ISC": 6776,
      "264": 6777,
      "Ġ97": 6778,
      "szÅĤ": 6779,
      "00000000000000000000000000000000": 6780,
      "ead": 6781,
      "alna": 6782,
      "ĠEV": 6783,
      "Ġsection": 6784,
      "Ġ{.": 6785,
      "ĠRob": 6786,
      "xEF": 6787,
      "BLE": 6788,
      "Ġ@@": 6789,
      "idl": 6790,
      "Ġdost": 6791,
      "Program": 6792,
      "ARGET": 6793,
      "Ġscale": 6794,
      "lok": 6795,
      "Ġjednym": 6796,
      "Ġkonkur": 6797,
      "ĠLoc": 6798,
      "ĠBl": 6799,
      "Us": 6800,
      "Ġhttps": 6801,
      "IGH": 6802,
      "Ġsob": 6803,
      "rue": 6804,
      "kra": 6805,
      "Head": 6806,
      "169": 6807,
      "Ġ189": 6808,
      "orÃ³w": 6809,
      "Iter": 6810,
      "Expr": 6811,
      "]))": 6812,
      "Ġsegment": 6813,
      "ĠHT": 6814,
      "Ġprevious": 6815,
      "wiat": 6816,
      "Ġcompliance": 6817,
      "ĠSYS": 6818,
      "Ġ43": 6819,
      "Dat": 6820,
      "Ġoznacz": 6821,
      "Ġenabled": 6822,
      "voke": 6823,
      "199": 6824,
      "Ġsuccessful": 6825,
      "LOBAL": 6826,
      "Reference": 6827,
      "ĠpiÄĻk": 6828,
      "ĠPoint": 6829,
      "FIFO": 6830,
      "ĠZobacz": 6831,
      "åĬ": 6832,
      "Ġobej": 6833,
      "arzÄħdz": 6834,
      "Ġcolumn": 6835,
      "Ġgminie": 6836,
      "Ġreq": 6837,
      "aml": 6838,
      "BS": 6839,
      "Ġpixels": 6840,
      "303": 6841,
      "Ġwant": 6842,
      "amiÄĻt": 6843,
      "sol": 6844,
      "crc": 6845,
      "profile": 6846,
      "ĠSource": 6847,
      "nv": 6848,
      "hd": 6849,
      "äº": 6850,
      "ĠksztaÅĤ": 6851,
      "ironment": 6852,
      "mk": 6853,
      "ÄĻg": 6854,
      "domain": 6855,
      "gs": 6856,
      "Ġnapis": 6857,
      "pare": 6858,
      "hl": 6859,
      "GROUP": 6860,
      "??": 6861,
      "ĠPi": 6862,
      "TING": 6863,
      "component": 6864,
      "Ġpowiecie": 6865,
      "185": 6866,
      "ĠCC": 6867,
      "ĠReserved": 6868,
      "Ġokres": 6869,
      "ĠZa": 6870,
      "Values": 6871,
      "urg": 6872,
      "anym": 6873,
      "chain": 6874,
      "ita": 6875,
      "ĠAC": 6876,
      "Search": 6877,
      "ĠEvent": 6878,
      "Ġsuper": 6879,
      "ĠksiÄĻ": 6880,
      "PARAMETER": 6881,
      "istent": 6882,
      "uments": 6883,
      "Ġdale": 6884,
      "anow": 6885,
      "Ġsem": 6886,
      "alle": 6887,
      "Ġnasz": 6888,
      "ĠzarÃ³wno": 6889,
      "itional": 6890,
      "Ġtrack": 6891,
      "Ġart": 6892,
      "DATE": 6893,
      "STATIC": 6894,
      "Ġ1997": 6895,
      "ĠĉĉĉĠĠĠĠĠ": 6896,
      "Ġkan": 6897,
      "Ġshow": 6898,
      "010": 6899,
      "Ġthem": 6900,
      "lej": 6901,
      "MAIN": 6902,
      "TRIBUT": 6903,
      "aki": 6904,
      "Ġ{{": 6905,
      "Ġdrog": 6906,
      "Ġstrong": 6907,
      "IPH": 6908,
      "Ġ63": 6909,
      "ĉĠĠĠ": 6910,
      "ARM": 6911,
      "ĠEd": 6912,
      "Dim": 6913,
      "Ġczego": 6914,
      "Ġpodstawie": 6915,
      "high": 6916,
      "Ġzde": 6917,
      "lave": 6918,
      "ives": 6919,
      "152": 6920,
      "Ġpracow": 6921,
      "uszcz": 6922,
      "xba": 6923,
      "Ġfailure": 6924,
      "Ġsys": 6925,
      "Bound": 6926,
      "uryst": 6927,
      "puter": 6928,
      "ĠsÅĤu": 6929,
      "Ġswojej": 6930,
      "ATURE": 6931,
      "member": 6932,
      "iÄĻcia": 6933,
      "ĠChar": 6934,
      "OUTPUT": 6935,
      "176": 6936,
      "Ġpower": 6937,
      "Rate": 6938,
      "strlen": 6939,
      "kadem": 6940,
      "CIAL": 6941,
      "Ġrelease": 6942,
      "Ġsprintf": 6943,
      "Ġmove": 6944,
      "Ġautom": 6945,
      "Ġzob": 6946,
      "Ġpozwal": 6947,
      "RGB": 6948,
      "dict": 6949,
      "(&(": 6950,
      "225": 6951,
      "AX": 6952,
      "olt": 6953,
      "141": 6954,
      "006": 6955,
      "ĠBiaÅĤ": 6956,
      "xda": 6957,
      "CONNE": 6958,
      "Ġfont": 6959,
      "ĠusÅĤug": 6960,
      "pers": 6961,
      "Ġng": 6962,
      "Ġpotrzeb": 6963,
      "Ġnaszej": 6964,
      "chodzi": 6965,
      "mult": 6966,
      "ajÄħcy": 6967,
      "ELE": 6968,
      "Ġ##": 6969,
      "YY": 6970,
      "serial": 6971,
      "ĠAlloc": 6972,
      ",_": 6973,
      "ĠÅļwiÄĻ": 6974,
      "rive": 6975,
      "RB": 6976,
      "alu": 6977,
      "rw": 6978,
      "ĠrÃ³Å¼nych": 6979,
      "``": 6980,
      "Ġproc": 6981,
      "Ġbezp": 6982,
      "awy": 6983,
      "None": 6984,
      "Ġlimitations": 6985,
      "ĠSHR": 6986,
      "Active": 6987,
      "Ġ105": 6988,
      "Pack": 6989,
      "stmt": 6990,
      "posaÅ¼": 6991,
      "ĠCONTRIBUT": 6992,
      "Ġcontent": 6993,
      "||": 6994,
      "LAB": 6995,
      "HR": 6996,
      "Hz": 6997,
      "Ġteraz": 6998,
      "ala": 6999,
      "bitmap": 7000,
      "Tool": 7001,
      "ĠFUN": 7002,
      "Script": 7003,
      "VERT": 7004,
      "kind": 7005,
      "Ġnier": 7006,
      "Arr": 7007,
      "._": 7008,
      "DY": 7009,
      "DOWN": 7010,
      "Ġpool": 7011,
      "Ġreport": 7012,
      "Ġwido": 7013,
      "226": 7014,
      "ÄħÅ¼": 7015,
      "><": 7016,
      "Ġactive": 7017,
      "Ġilo": 7018,
      "Ġlud": 7019,
      "img": 7020,
      "Ġ\"-": 7021,
      "ĠInit": 7022,
      "dot": 7023,
      "THON": 7024,
      "Ġui": 7025,
      "0002": 7026,
      "disable": 7027,
      "Ġciekaw": 7028,
      "AST": 7029,
      "Properties": 7030,
      "188": 7031,
      "153": 7032,
      "Equal": 7033,
      "bra": 7034,
      "221": 7035,
      "ĠCol": 7036,
      "cj": 7037,
      "ĠCONTRIBUTORS": 7038,
      "bad": 7039,
      "ĠNV": 7040,
      "Ġtab": 7041,
      "162": 7042,
      "UEST": 7043,
      "Ġ******************************************************************************": 7044,
      "czes": 7045,
      "ĠJego": 7046,
      "Scene": 7047,
      "ĠVk": 7048,
      "COMMAND": 7049,
      "Ġassign": 7050,
      "thon": 7051,
      "Ġhigh": 7052,
      "iada": 7053,
      "ULE": 7054,
      "ĠUniwersyt": 7055,
      "ityEngine": 7056,
      "hav": 7057,
      "Scale": 7058,
      "Ġ54": 7059,
      "Ġclo": 7060,
      "akty": 7061,
      "Library": 7062,
      "FIL": 7063,
      "Policy": 7064,
      "ffers": 7065,
      "Ġalpha": 7066,
      "icach": 7067,
      "Ġzakresie": 7068,
      "Ġident": 7069,
      "Ġvert": 7070,
      "Ġneeded": 7071,
      "Ġaktor": 7072,
      "curr": 7073,
      "Common": 7074,
      "Ġhistory": 7075,
      "icros": 7076,
      "500": 7077,
      "ulation": 7078,
      "Find": 7079,
      "uda": 7080,
      "tcp": 7081,
      "Ġmis": 7082,
      "dx": 7083,
      "menu": 7084,
      "Ġpassed": 7085,
      "))))": 7086,
      "ĠFLA": 7087,
      "Decl": 7088,
      "Ġthey": 7089,
      "uart": 7090,
      "ĠBASIS": 7091,
      "integer": 7092,
      "ERO": 7093,
      "pal": 7094,
      "ĠBuffer": 7095,
      "ational": 7096,
      "clus": 7097,
      "Ġ41": 7098,
      "POINT": 7099,
      "oÅĤu": 7100,
      "ĠCONDITION": 7101,
      "NX": 7102,
      "080": 7103,
      "Root": 7104,
      "ONLY": 7105,
      "Ġgoverning": 7106,
      "195": 7107,
      "ado": 7108,
      "yl": 7109,
      "Ġprzej": 7110,
      "Ġmiejsca": 7111,
      "EGER": 7112,
      "158": 7113,
      "ÅĽcia": 7114,
      "174": 7115,
      "179": 7116,
      "grzysk": 7117,
      "owaÅĤy": 7118,
      "First": 7119,
      "fek": 7120,
      "ÅĦska": 7121,
      "ACC": 7122,
      "Ġent": 7123,
      "ama": 7124,
      "è¯": 7125,
      "oczy": 7126,
      "eme": 7127,
      "owanym": 7128,
      "player": 7129,
      "ĠMa": 7130,
      "pub": 7131,
      "Ġdol": 7132,
      "PROPERTY": 7133,
      "Order": 7134,
      "limit": 7135,
      "RAW": 7136,
      "sensor": 7137,
      "242": 7138,
      "ĠAnt": 7139,
      "ĠÅĤat": 7140,
      "184": 7141,
      "fm": 7142,
      "Ġour": 7143,
      "bat": 7144,
      "Ġbutton": 7145,
      "insertion": 7146,
      "Ġmor": 7147,
      "ĠDefault": 7148,
      "Ġgu": 7149,
      "ĠUS": 7150,
      "231": 7151,
      "flush": 7152,
      "Ġinformacji": 7153,
      "tym": 7154,
      "EQUAL": 7155,
      "166": 7156,
      "Ġobjects": 7157,
      "Ġda": 7158,
      "Ġwyj": 7159,
      "ĠCM": 7160,
      "Ġparaf": 7161,
      "Ġ------------------------------------------------------------------------": 7162,
      "ĠNr": 7163,
      "two": 7164,
      "ĠArray": 7165,
      "248": 7166,
      "ĠmiÅĤ": 7167,
      "oli": 7168,
      "ĠĉĉĉĉĠĠĠĠ": 7169,
      "Ġsf": 7170,
      "(::": 7171,
      "Req": 7172,
      "ARCH": 7173,
      "SYNC": 7174,
      "TOK": 7175,
      "Ġ66": 7176,
      "Ġniew": 7177,
      "ĠRec": 7178,
      "Ġlecz": 7179,
      "ĠZaw": 7180,
      "Ġ2021": 7181,
      "SHA": 7182,
      "zydent": 7183,
      "Ġss": 7184,
      "WINDO": 7185,
      "EXP": 7186,
      "ĠgÃ³r": 7187,
      "utor": 7188,
      "040": 7189,
      "usza": 7190,
      "Ġatom": 7191,
      "Ġstanowis": 7192,
      "ĠTX": 7193,
      "Step": 7194,
      "vt": 7195,
      "keys": 7196,
      "ifi": 7197,
      "ASE": 7198,
      "REC": 7199,
      "ciem": 7200,
      "manager": 7201,
      "build": 7202,
      "->_": 7203,
      "#+": 7204,
      "SCAL": 7205,
      "ĠzaÅĽ": 7206,
      "jemy": 7207,
      "XY": 7208,
      "vertex": 7209,
      "âĸĪ": 7210,
      "Ġpotr": 7211,
      "Ġ2001": 7212,
      "Configuration": 7213,
      "ĠWsp": 7214,
      "Ġedge": 7215,
      "Symbol": 7216,
      "ÅĦskim": 7217,
      "TMP": 7218,
      "SIGN": 7219,
      "memset": 7220,
      "ĉĉĉĉĉĉ": 7221,
      "OLE": 7222,
      "Ġtek": 7223,
      "jedno": 7224,
      "Ġallocate": 7225,
      "Rel": 7226,
      "description": 7227,
      "Profile": 7228,
      "CRY": 7229,
      "cho": 7230,
      "liwe": 7231,
      "Ġpoprzez": 7232,
      "Ġ2002": 7233,
      "rytyj": 7234,
      "variable": 7235,
      "BLIC": 7236,
      "212": 7237,
      "Ġbuild": 7238,
      "ĠEl": 7239,
      "ĠCopy": 7240,
      "Ġchunk": 7241,
      "Ġrodzin": 7242,
      "RANGE": 7243,
      "Ġca": 7244,
      "ĠApp": 7245,
      "ĠAUTH": 7246,
      "ĠPa": 7247,
      "ĠMOD": 7248,
      "resz": 7249,
      "Section": 7250,
      "ĠkaÅ¼dy": 7251,
      "schod": 7252,
      "done": 7253,
      "VL": 7254,
      "Ġcre": 7255,
      "335": 7256,
      "protoc": 7257,
      "151": 7258,
      "ences": 7259,
      "Ġrot": 7260,
      "Ġ53": 7261,
      "ĠktÃ³rÄħ": 7262,
      "czyt": 7263,
      "Ġgry": 7264,
      "ĠCONDITIONS": 7265,
      "niem": 7266,
      "Ġindy": 7267,
      "kom": 7268,
      "çĶ¨": 7269,
      "ĠpÃ³ÅĤnoc": 7270,
      "00007": 7271,
      "HI": 7272,
      "ANG": 7273,
      "Ġ2003": 7274,
      "ÄĻdzie": 7275,
      "Ġliczy": 7276,
      "Ġgrupy": 7277,
      "OPT": 7278,
      "167": 7279,
      "GT": 7280,
      "INTERNAL": 7281,
      "INTR": 7282,
      "ĠpoÅĤÄħcz": 7283,
      "Ġrozgry": 7284,
      "acyjnych": 7285,
      "]],": 7286,
      "ĠLud": 7287,
      "Ġofic": 7288,
      "nc": 7289,
      "ĠRun": 7290,
      "ISTER": 7291,
      "Ġ//------------------------------------------------------------------------": 7292,
      "px": 7293,
      "js": 7294,
      "NOWN": 7295,
      "nÄħÄĩ": 7296,
      "prite": 7297,
      "ĠCode": 7298,
      "czonych": 7299,
      "Ġresource": 7300,
      "ÅĤop": 7301,
      "ciÄħg": 7302,
      "UME": 7303,
      "gran": 7304,
      "ĠGo": 7305,
      "retain": 7306,
      "ĠÅĽwiÄĻ": 7307,
      "');": 7308,
      "COPY": 7309,
      "lg": 7310,
      "Ġlow": 7311,
      "0004": 7312,
      "dk": 7313,
      "ĠGET": 7314,
      "bed": 7315,
      "ĠmÃ³": 7316,
      "duk": 7317,
      "Ġdepth": 7318,
      "Ġlayer": 7319,
      "VED": 7320,
      "VC": 7321,
      "178": 7322,
      "tim": 7323,
      "ĠTem": 7324,
      "aczej": 7325,
      "Ġ----------------------------------------------------------------": 7326,
      "Ġ95": 7327,
      "strict": 7328,
      "ACTIVE": 7329,
      "Ġuseful": 7330,
      "Right": 7331,
      "qui": 7332,
      "vas": 7333,
      "Ġallocated": 7334,
      "strz": 7335,
      "ĠNT": 7336,
      "ĠPCI": 7337,
      "Ġvariables": 7338,
      "ĠOs": 7339,
      "+=": 7340,
      "ually": 7341,
      "mii": 7342,
      "kr": 7343,
      "Assert": 7344,
      "oda": 7345,
      "road": 7346,
      "ĠPIN": 7347,
      "Counter": 7348,
      "Ġattr": 7349,
      "194": 7350,
      "Ġdifferent": 7351,
      "196": 7352,
      "ILED": 7353,
      "cpp": 7354,
      "BCM": 7355,
      "Sync": 7356,
      "yba": 7357,
      "rotnie": 7358,
      "xAA": 7359,
      "))->": 7360,
      "Ġplac": 7361,
      "ĠRady": 7362,
      "ĠGdy": 7363,
      "ĠdzieÅĦ": 7364,
      "FREE": 7365,
      "itive": 7366,
      "MALL": 7367,
      "utils": 7368,
      "fw": 7369,
      "LEX": 7370,
      "Surface": 7371,
      "Ġulic": 7372,
      "Ġwskaz": 7373,
      "asses": 7374,
      "ATTRIB": 7375,
      "ĠGO": 7376,
      "163": 7377,
      "owaniem": 7378,
      "Ġalways": 7379,
      "iach": 7380,
      "ĠProgram": 7381,
      "Ġprawa": 7382,
      "Ġ52": 7383,
      "Ġkt": 7384,
      "nodes": 7385,
      "ĠĠĠĉĉ": 7386,
      "Ġentries": 7387,
      "utaj": 7388,
      "ĠKrÃ³": 7389,
      "Ġznale": 7390,
      "Ġsince": 7391,
      "video": 7392,
      "flash": 7393,
      "Ġwojsk": 7394,
      "inf": 7395,
      "esp": 7396,
      "alnym": 7397,
      "Ġcp": 7398,
      "ĠzamÃ³w": 7399,
      "UInt": 7400,
      "Ġcos": 7401,
      "fast": 7402,
      "yych": 7403,
      "aka": 7404,
      "ĠMethod": 7405,
      "irm": 7406,
      "Close": 7407,
      "++]": 7408,
      "GP": 7409,
      "Ġ57": 7410,
      "008": 7411,
      "pk": 7412,
      "niÅĤ": 7413,
      "Void": 7414,
      "byt": 7415,
      "Ġmaximum": 7416,
      "Ġsort": 7417,
      "Ġsequence": 7418,
      "ĠTech": 7419,
      "ĠCall": 7420,
      "czki": 7421,
      "tb": 7422,
      "zie": 7423,
      "Ġincluded": 7424,
      "normal": 7425,
      "audio": 7426,
      "ACCESS": 7427,
      "odÃ³w": 7428,
      "235": 7429,
      "hes": 7430,
      "FIN": 7431,
      "ĠFT": 7432,
      "ĠUnivers": 7433,
      "icj": 7434,
      "Ġexample": 7435,
      "oczeÅĽnie": 7436,
      "187": 7437,
      "swap": 7438,
      "Body": 7439,
      "ĠPrzed": 7440,
      "ĠprzedsiÄĻbior": 7441,
      "Ġignore": 7442,
      "cyd": 7443,
      "Ġ188": 7444,
      "Rout": 7445,
      "Ġsubst": 7446,
      "ckiej": 7447,
      "lx": 7448,
      "zyw": 7449,
      "Ġscreen": 7450,
      "liÅĽmy": 7451,
      "dbg": 7452,
      "WER": 7453,
      "ĠSUB": 7454,
      "runtime": 7455,
      "olumns": 7456,
      "Ġ****************************************************************************": 7457,
      "arzyst": 7458,
      "Ġmulti": 7459,
      "mag": 7460,
      ":%.*": 7461,
      "icon": 7462,
      "++){": 7463,
      "Serial": 7464,
      "owiad": 7465,
      "MBOL": 7466,
      "Use": 7467,
      "ĠCie": 7468,
      "Ġraw": 7469,
      "aux": 7470,
      "ox": 7471,
      "dziÄĩ": 7472,
      "rud": 7473,
      "Ġrzecz": 7474,
      "big": 7475,
      "Ġistnie": 7476,
      "zi": 7477,
      "STER": 7478,
      "Term": 7479,
      "Ġsent": 7480,
      "ÅĤÄĻ": 7481,
      "Information": 7482,
      "Ġpkt": 7483,
      "Mat": 7484,
      "ckie": 7485,
      "1024": 7486,
      "Ġpush": 7487,
      "ĠControl": 7488,
      "epar": 7489,
      "ĠDziÄĻki": 7490,
      "HS": 7491,
      "ĠUnless": 7492,
      "entries": 7493,
      "Ġhold": 7494,
      "ĠWszyst": 7495,
      "niego": 7496,
      "eric": 7497,
      "ĠAg": 7498,
      "pped": 7499,
      "Ġ:)": 7500,
      "czyn": 7501,
      "jÄħca": 7502,
      "ALIGN": 7503,
      "abi": 7504,
      "Ġwych": 7505,
      "sect": 7506,
      "Ġshift": 7507,
      "adding": 7508,
      "Ġsubject": 7509,
      "Ġds": 7510,
      "198": 7511,
      "ĠPaw": 7512,
      "Ġbran": 7513,
      "ownie": 7514,
      "327": 7515,
      "Ġpp": 7516,
      "interpret": 7517,
      "Ġstanowi": 7518,
      "reference": 7519,
      "ette": 7520,
      "Ġcons": 7521,
      "Dest": 7522,
      "cÄħ": 7523,
      "nam": 7524,
      "gb": 7525,
      "Ġona": 7526,
      "pospol": 7527,
      "ĠHandle": 7528,
      "Ġwspom": 7529,
      "OPTION": 7530,
      "icznego": 7531,
      "storage": 7532,
      "Ġaktyw": 7533,
      "Ġenerg": 7534,
      "BUT": 7535,
      "ĠurzÄħdz": 7536,
      "vb": 7537,
      "aÅĤu": 7538,
      "Ġtyp": 7539,
      "Ġautor": 7540,
      "Ġfran": 7541,
      "ĠTom": 7542,
      "Ġagreed": 7543,
      "ç»": 7544,
      "ĠOdznacz": 7545,
      "ĠjakoÅĽci": 7546,
      "ror": 7547,
      "ĠWedÅĤug": 7548,
      "Ġow": 7549,
      "shot": 7550,
      "Ġ*/,": 7551,
      "Ġposiada": 7552,
      "Ġincluding": 7553,
      "Pair": 7554,
      "onds": 7555,
      "Ġrynku": 7556,
      "lap": 7557,
      "PROTOBUF": 7558,
      "Rad": 7559,
      "ĠLIB": 7560,
      "Ġ69": 7561,
      "ĠMag": 7562,
      "ĠERR": 7563,
      "unkÃ³w": 7564,
      "ĠNow": 7565,
      "Ġiterator": 7566,
      "Auth": 7567,
      "alaz": 7568,
      "ĠWrocÅĤaw": 7569,
      "Ġubezpie": 7570,
      "anner": 7571,
      "cx": 7572,
      "Main": 7573,
      "REEN": 7574,
      "Ġuz": 7575,
      "Pipe": 7576,
      "Uniform": 7577,
      "STACK": 7578,
      "Ġ1024": 7579,
      "SELE": 7580,
      "Builder": 7581,
      "kret": 7582,
      "CAL": 7583,
      "Ġ'%": 7584,
      "172": 7585,
      "SZ": 7586,
      "glÄħda": 7587,
      "location": 7588,
      "Ġ96": 7589,
      "Ġdwie": 7590,
      "ough": 7591,
      "Ġrodziny": 7592,
      "ĠOg": 7593,
      "Ġkierow": 7594,
      "ĠDec": 7595,
      "invalid": 7596,
      "âĪ": 7597,
      "script": 7598,
      "niejsze": 7599,
      "stety": 7600,
      "Ġwymag": 7601,
      "ĠSzko": 7602,
      "Ġdokon": 7603,
      "Ġ/****************************************************************": 7604,
      "Ġmx": 7605,
      "texture": 7606,
      "173": 7607,
      "Ġuch": 7608,
      "Ġtransport": 7609,
      "ĠClear": 7610,
      "Mutable": 7611,
      "wykle": 7612,
      "Ġdescription": 7613,
      "ĠRo": 7614,
      "Ġvm": 7615,
      "Ġzapro": 7616,
      "Ġvertex": 7617,
      "Comm": 7618,
      "CLIENT": 7619,
      "obec": 7620,
      "rzym": 7621,
      "OPER": 7622,
      "ĠBog": 7623,
      "Ġ//!<": 7624,
      "IMAGE": 7625,
      "Å¼yÅĤ": 7626,
      "oka": 7627,
      "209": 7628,
      "Ġwarran": 7629,
      "Trace": 7630,
      "master": 7631,
      "Ã¼": 7632,
      "Ġokresie": 7633,
      "ĠVT": 7634,
      "ĠWal": 7635,
      "ĠPiÅĤkarze": 7636,
      "191": 7637,
      "Ġselect": 7638,
      "Ġll": 7639,
      "roid": 7640,
      "pthread": 7641,
      "ĠukÅĤad": 7642,
      "Ġzastos": 7643,
      "Ġshared": 7644,
      "fill": 7645,
      "ĠStu": 7646,
      "2016": 7647,
      ".\",": 7648,
      "Ġfields": 7649,
      "Ġwtedy": 7650,
      "Ġkonst": 7651,
      "ĠokreÅĽl": 7652,
      "ĠFO": 7653,
      "Ġpok": 7654,
      "conds": 7655,
      "ather": 7656,
      "233": 7657,
      "Ġtransfer": 7658,
      "ĠMoÅ¼": 7659,
      "ited": 7660,
      "Sequence": 7661,
      "Dialog": 7662,
      "ycznego": 7663,
      "Ġtri": 7664,
      "ĠwyÅĤÄħcz": 7665,
      "PYX": 7666,
      "Ġdobre": 7667,
      "column": 7668,
      "xFB": 7669,
      "ĠLoad": 7670,
      "DESC": 7671,
      "EW": 7672,
      "rukt": 7673,
      "ĠrozpoczÄĻ": 7674,
      "layout": 7675,
      "Ġbased": 7676,
      "IDX": 7677,
      "wist": 7678,
      "ĠHistoria": 7679,
      "ĠwyposaÅ¼": 7680,
      "Parent": 7681,
      "384": 7682,
      "Ab": 7683,
      "Ġ//#": 7684,
      "Coord": 7685,
      "ĠzakÅĤad": 7686,
      "Tensor": 7687,
      "iciel": 7688,
      "initWith": 7689,
      "304": 7690,
      "ĠgÅĤos": 7691,
      "(){": 7692,
      "$$": 7693,
      "etype": 7694,
      "223": 7695,
      "Ġrx": 7696,
      "213": 7697,
      "znaw": 7698,
      "Ġ75": 7699,
      "ĠGru": 7700,
      "Ġ102": 7701,
      "ĠWi": 7702,
      "Ġ108": 7703,
      "ĠByÅĤ": 7704,
      "POL": 7705,
      "Ġofert": 7706,
      "istics": 7707,
      "Ġprzem": 7708,
      "ves": 7709,
      "spin": 7710,
      "197": 7711,
      "Ġupd": 7712,
      "CLR": 7713,
      "Clock": 7714,
      "Ġfill": 7715,
      "Ġcould": 7716,
      "227": 7717,
      "Ġdoskon": 7718,
      "ĠniektÃ³": 7719,
      "atÃ³w": 7720,
      "dop": 7721,
      "DRV": 7722,
      "Ġ68": 7723,
      "Ġdiv": 7724,
      "Tx": 7725,
      "Ġsto": 7726,
      "246": 7727,
      "ube": 7728,
      "ipheral": 7729,
      "ident": 7730,
      "rece": 7731,
      "SETTING": 7732,
      "ĠSm": 7733,
      "ostÄĻp": 7734,
      "Ġpc": 7735,
      "Gen": 7736,
      "Red": 7737,
      "ĠiÅ¼": 7738,
      "ENTIAL": 7739,
      "xca": 7740,
      "rhs": 7741,
      "Edge": 7742,
      "decode": 7743,
      "Ġtygod": 7744,
      "day": 7745,
      "DLL": 7746,
      "plo": 7747,
      "kaÄĩ": 7748,
      "Ġpad": 7749,
      "FILTER": 7750,
      "Ġer": 7751,
      "Clo": 7752,
      "platform": 7753,
      "ĠSP": 7754,
      "Ġ***": 7755,
      "xBE": 7756,
      "jÄħcego": 7757,
      "chÄĻ": 7758,
      "183": 7759,
      "Ġkad": 7760,
      "rank": 7761,
      "ĠJa": 7762,
      "ĠOB": 7763,
      "Ġinwest": 7764,
      "multi": 7765,
      "ĠKra": 7766,
      "ĠLa": 7767,
      "ĠmoÅ¼liwoÅĽÄĩ": 7768,
      "boot": 7769,
      "Ġexecute": 7770,
      "BAD": 7771,
      "ĠĉĠĠĠĠĠĠĠ": 7772,
      "condition": 7773,
      "GS": 7774,
      "ckim": 7775,
      "228": 7776,
      "Camera": 7777,
      "ĠZam": 7778,
      "Ġmistrzostw": 7779,
      "Wh": 7780,
      "*)&": 7781,
      "area": 7782,
      "Ġonline": 7783,
      ")]": 7784,
      "Ġcorrespon": 7785,
      "Ġpoko": 7786,
      "ĠĉĉĠĠĠĠĠĠ": 7787,
      "icrosoft": 7788,
      "Ġinnymi": 7789,
      "Ġdziew": 7790,
      "Ġequal": 7791,
      "interes": 7792,
      "plik": 7793,
      "Ġtemper": 7794,
      "ĠCze": 7795,
      "interrupt": 7796,
      "CACHE": 7797,
      "Ġpyt": 7798,
      "ĠKrzyÅ¼": 7799,
      "ĠmÄĻÅ¼czy": 7800,
      "oczes": 7801,
      "icient": 7802,
      "Ġdlatego": 7803,
      "Reset": 7804,
      "ĠCar": 7805,
      "SDL": 7806,
      "ĠciÄĻÅ¼": 7807,
      "stry": 7808,
      "Devices": 7809,
      "ĠPORT": 7810,
      "ĠnajwiÄĻk": 7811,
      "Ġczar": 7812,
      "æĹ": 7813,
      "Ġboth": 7814,
      "ĠdziaÅĤania": 7815,
      "Ġmamy": 7816,
      "ĠHOLDERS": 7817,
      "come": 7818,
      "ĠPuchar": 7819,
      "375": 7820,
      "ea": 7821,
      "ĠColor": 7822,
      "ĠVK": 7823,
      "Ġsetup": 7824,
      "gle": 7825,
      "BOX": 7826,
      "Ġjedynie": 7827,
      "HL": 7828,
      "woju": 7829,
      "Scalar": 7830,
      "Ġsup": 7831,
      "ĠCD": 7832,
      "Rot": 7833,
      "STA": 7834,
      "pci": 7835,
      "Ġwydaw": 7836,
      "odob": 7837,
      "Ġ**/": 7838,
      "ĠÃ": 7839,
      "Ġdzien": 7840,
      "Ġkategor": 7841,
      "ĠMor": 7842,
      "ĠÅĽwiet": 7843,
      "ĠCy": 7844,
      "Ne": 7845,
      "mf": 7846,
      "report": 7847,
      "ĠMiejsc": 7848,
      "è®": 7849,
      "Ġtransform": 7850,
      "Ġumie": 7851,
      "å¹": 7852,
      "LB": 7853,
      "243": 7854,
      "Ġ67": 7855,
      "ĠUrz": 7856,
      "Ġ85": 7857,
      "Ġrect": 7858,
      "Ġdelay": 7859,
      "%%%%%%%%": 7860,
      "Ġproto": 7861,
      "freq": 7862,
      "Ġrandom": 7863,
      "REQUEST": 7864,
      "Ġtexture": 7865,
      "ĠLED": 7866,
      "Kind": 7867,
      "ĠBud": 7868,
      "RS": 7869,
      "ĠMatrix": 7870,
      "pler": 7871,
      "Ġcoordin": 7872,
      "ands": 7873,
      "roj": 7874,
      "ĠponiewaÅ¼": 7875,
      "span": 7876,
      "urpose": 7877,
      "owskiego": 7878,
      "Ñĥ": 7879,
      "Fr": 7880,
      "NEW": 7881,
      "Ġrefer": 7882,
      "Plu": 7883,
      "Ġwew": 7884,
      "Ġredistribute": 7885,
      "CLO": 7886,
      "anon": 7887,
      "æĪ": 7888,
      "æĺ": 7889,
      "247": 7890,
      "ĠText": 7891,
      "ĠZjedno": 7892,
      "szech": 7893,
      "items": 7894,
      "ĠmieÄĩ": 7895,
      "seconds": 7896,
      "Ġani": 7897,
      "sequence": 7898,
      "171": 7899,
      "des": 7900,
      "ĠÅĽci": 7901,
      "Ġ*=": 7902,
      "iÅĤa": 7903,
      "Ġwsi": 7904,
      "Report": 7905,
      "Ġskute": 7906,
      "ILD": 7907,
      "SQL": 7908,
      "ua": 7909,
      "Ġtransaction": 7910,
      "rowadz": 7911,
      "MON": 7912,
      "ĠmiesiÄħ": 7913,
      "Ġrozm": 7914,
      "Io": 7915,
      "=-": 7916,
      "CAST": 7917,
      "imary": 7918,
      "ĠSend": 7919,
      "Stop": 7920,
      "Ġtrady": 7921,
      "ĠÅĽwiecie": 7922,
      "ĠĠĉĠĠĠĠ": 7923,
      "Ġmost": 7924,
      "ĠwyjÄħ": 7925,
      "Ġwier": 7926,
      "&)": 7927,
      "ĠEuropy": 7928,
      "bose": 7929,
      "IFY": 7930,
      "lookup": 7931,
      "ĠPrint": 7932,
      "Ġnak": 7933,
      "lub": 7934,
      "faces": 7935,
      "Ġsiedzib": 7936,
      "ĠwzglÄĻdu": 7937,
      "SOURCE": 7938,
      "oriz": 7939,
      "Ġpipe": 7940,
      "Ã³wki": 7941,
      "ĠLen": 7942,
      "Been": 7943,
      "ĠSpec": 7944,
      "Me": 7945,
      "oszenia": 7946,
      "crement": 7947,
      "ĠKat": 7948,
      "RESER": 7949,
      "Ġsal": 7950,
      "345": 7951,
      "Move": 7952,
      "nicode": 7953,
      "ermission": 7954,
      "Metadata": 7955,
      "Ġtransp": 7956,
      "ĠBSD": 7957,
      "Notification": 7958,
      "Ġprzeznacz": 7959,
      "ended": 7960,
      "uture": 7961,
      ">*": 7962,
      "ĠCAN": 7963,
      "BUTTON": 7964,
      "TLS": 7965,
      "Ġtrak": 7966,
      "Ġoj": 7967,
      "Ġserwis": 7968,
      "Destroy": 7969,
      "ĠKole": 7970,
      "Ġwx": 7971,
      "Ġhistorii": 7972,
      "Ġwarranty": 7973,
      "intr": 7974,
      "MED": 7975,
      "SOC": 7976,
      "HTTP": 7977,
      "stdint": 7978,
      "Ġalong": 7979,
      "ugin": 7980,
      "eh": 7981,
      "fon": 7982,
      "tki": 7983,
      "qlite": 7984,
      "Ġ%%": 7985,
      "GRA": 7986,
      "Ġnadz": 7987,
      "title": 7988,
      "Ġtaki": 7989,
      "BP": 7990,
      "tle": 7991,
      "Ġtraf": 7992,
      "Ġerrno": 7993,
      "Ġnodes": 7994,
      "SIM": 7995,
      "EINVAL": 7996,
      "istry": 7997,
      "229": 7998,
      "ĠEuropej": 7999,
      "ĠYY": 8000,
      "Ġnetwork": 8001,
      "acters": 8002,
      "Sl": 8003,
      "grid": 8004,
      "ĠReset": 8005,
      "ĠSÄħ": 8006,
      "ĠMode": 8007,
      "Ġpowierzchni": 8008,
      "Ġ110": 8009,
      "ustr": 8010,
      "+(": 8011,
      "ĠCLA": 8012,
      "ssl": 8013,
      "Ġdzis": 8014,
      "Ġreadonly": 8015,
      "ĠPC": 8016,
      "PID": 8017,
      "ÄħÅĤ": 8018,
      "ola": 8019,
      "Ġmodification": 8020,
      "ĠzwyciÄĻ": 8021,
      "xCC": 8022,
      "locity": 8023,
      "Ġdirect": 8024,
      "ÅĽciej": 8025,
      "2018": 8026,
      "Ġ120": 8027,
      "ĠSw": 8028,
      "ĠogÃ³l": 8029,
      "GOT": 8030,
      "ĠTRA": 8031,
      "imm": 8032,
      "ĠĉĉĉĉĉĠĠĠ": 8033,
      "},{&": 8034,
      "UBLE": 8035,
      "306": 8036,
      "Ġpublished": 8037,
      "Ġmiasto": 8038,
      "HasBeen": 8039,
      "ĠSHA": 8040,
      "253": 8041,
      "FLOW": 8042,
      "Ġurodzeni": 8043,
      "ĠNag": 8044,
      "tect": 8045,
      "161": 8046,
      "Attributes": 8047,
      "ĠBU": 8048,
      "+-+-": 8049,
      "Driver": 8050,
      "weak": 8051,
      "Ġwithin": 8052,
      "ĠRy": 8053,
      "pending": 8054,
      "ula": 8055,
      "ĠchoÄĩ": 8056,
      "Wait": 8057,
      "Ġwybran": 8058,
      "ĠFind": 8059,
      "closure": 8060,
      "ĠLCD": 8061,
      "ĠZmarli": 8062,
      "ARK": 8063,
      "organiz": 8064,
      "cznym": 8065,
      "ĠProcess": 8066,
      "CMP": 8067,
      "strn": 8068,
      "olve": 8069,
      "enabled": 8070,
      "speed": 8071,
      "scope": 8072,
      "Ġstored": 8073,
      "kowie": 8074,
      "193": 8075,
      "xBF": 8076,
      "Ġwhat": 8077,
      "ĠÂ»": 8078,
      "iero": 8079,
      "Ġadded": 8080,
      "author": 8081,
      "Mark": 8082,
      "Ġrec": 8083,
      "ĠKC": 8084,
      "Temp": 8085,
      "ĠWit": 8086,
      "asa": 8087,
      "Ġsetting": 8088,
      "Ġindywid": 8089,
      "360": 8090,
      "mis": 8091,
      "Ġperson": 8092,
      "adapter": 8093,
      "Ġbieg": 8094,
      "ULONG": 8095,
      "lambda": 8096,
      "rpc": 8097,
      "Shared": 8098,
      "aku": 8099,
      "SYSTEM": 8100,
      "ENO": 8101,
      "Shape": 8102,
      "PACK": 8103,
      "apt": 8104,
      "ĠâĢĶ": 8105,
      "]));": 8106,
      "Ġnaszych": 8107,
      "Ġwymi": 8108,
      "HasBeenSet": 8109,
      "usa": 8110,
      "lines": 8111,
      "WAIT": 8112,
      "Ġposz": 8113,
      "ĠGLint": 8114,
      "LABEL": 8115,
      "roÅ¼": 8116,
      "Ġpair": 8117,
      "ances": 8118,
      "Ġgrup": 8119,
      "EVER": 8120,
      "ĠzwiÄħzku": 8121,
      "Ġmethods": 8122,
      "STD": 8123,
      "dzieÄĩ": 8124,
      "ĠMSG": 8125,
      "ned": 8126,
      "Ġinstead": 8127,
      "Ġwiad": 8128,
      "ĠAM": 8129,
      "Ġleg": 8130,
      "Domain": 8131,
      "Ġprzyp": 8132,
      "Ġskrzy": 8133,
      "ĠJoh": 8134,
      "Ġindywidual": 8135,
      "FAILED": 8136,
      "Ġwynosi": 8137,
      "251": 8138,
      "Ġtimes": 8139,
      "widget": 8140,
      "rout": 8141,
      "ĠSTATE": 8142,
      "delta": 8143,
      "Ġoriginal": 8144,
      "ÅĤod": 8145,
      "Ġseq": 8146,
      "NR": 8147,
      "cture": 8148,
      "()->": 8149,
      "Ġprojektu": 8150,
      "inv": 8151,
      "ĠInterrupt": 8152,
      "MAG": 8153,
      "182": 8154,
      "ĠAddress": 8155,
      "Ġ180": 8156,
      "UNKNOWN": 8157,
      "orys": 8158,
      "10000": 8159,
      "Ġep": 8160,
      "Ġusb": 8161,
      "lick": 8162,
      "Ġprzede": 8163,
      "wiedz": 8164,
      "lb": 8165,
      "ĠiVar": 8166,
      "CNT": 8167,
      "Cfg": 8168,
      "iewicz": 8169,
      "book": 8170,
      "Off": 8171,
      "fix": 8172,
      "Ġ1999": 8173,
      "LOCAL": 8174,
      ";\\": 8175,
      "Ġ)(": 8176,
      "ĠField": 8177,
      "éĢ": 8178,
      "322": 8179,
      "SERVER": 8180,
      "ĠMessage": 8181,
      "PED": 8182,
      "oÅĤnier": 8183,
      "ĠUniwersytetu": 8184,
      "oÅĽred": 8185,
      "305": 8186,
      "dispatch": 8187,
      "wiek": 8188,
      "Setup": 8189,
      "ĠPio": 8190,
      "2020": 8191,
      "ipv": 8192,
      "ĠzajÄĻ": 8193,
      "Ġwystaw": 8194,
      "POWER": 8195,
      "Ġmember": 8196,
      "Av": 8197,
      "rier": 8198,
      "OLEAN": 8199,
      "Ġ84": 8200,
      "Ġdirection": 8201,
      "ocus": 8202,
      "ged": 8203,
      "xAD": 8204,
      "Ġuntil": 8205,
      "Ġmusi": 8206,
      "Ġprotocol": 8207,
      "Ġvtk": 8208,
      "CLOCK": 8209,
      "ĉĉĠ": 8210,
      "Ġthrow": 8211,
      "ĠResult": 8212,
      "ĠAuthor": 8213,
      "plac": 8214,
      "ENSOR": 8215,
      "peer": 8216,
      "Ġwarto": 8217,
      "ĠWhen": 8218,
      "344": 8219,
      "Ġodn": 8220,
      "ĠRO": 8221,
      "Ġ109": 8222,
      "\\\",": 8223,
      "Ġ{};": 8224,
      "Ġzwierz": 8225,
      "syj": 8226,
      "ĠKrak": 8227,
      "kiw": 8228,
      "XXXX": 8229,
      "ĠwpÅĤyw": 8230,
      "EXTER": 8231,
      "kuje": 8232,
      "Attrib": 8233,
      "Ġwould": 8234,
      "mesh": 8235,
      "RW": 8236,
      "Ġnauczy": 8237,
      "ĠSQL": 8238,
      "Ġpodat": 8239,
      "tection": 8240,
      "Ġmedal": 8241,
      "ezpie": 8242,
      "ĠVALUE": 8243,
      "Ġpid": 8244,
      "surface": 8245,
      "Ġodd": 8246,
      "SCAN": 8247,
      "ĠwÅĽrÃ³d": 8248,
      "Ġ114": 8249,
      "ÅĽlin": 8250,
      "basic": 8251,
      "soc": 8252,
      "kowej": 8253,
      "Ġpsych": 8254,
      "Ġsure": 8255,
      "Ġrate": 8256,
      "Ġsv": 8257,
      "Ġbox": 8258,
      "ĠMod": 8259,
      "ĠMAC": 8260,
      "rzew": 8261,
      "reply": 8262,
      "ĠOf": 8263,
      "Ġconf": 8264,
      "215": 8265,
      "ĠMap": 8266,
      "ĠduÅ¼o": 8267,
      "Region": 8268,
      "unch": 8269,
      "cision": 8270,
      "kowych": 8271,
      "Ġaudio": 8272,
      "Ġrodzaju": 8273,
      "uler": 8274,
      "ĠSPECIAL": 8275,
      "Ġ115": 8276,
      "SCRIPT": 8277,
      "igi": 8278,
      "mv": 8279,
      "ierze": 8280,
      "ITER": 8281,
      "acyjny": 8282,
      "Ġdisable": 8283,
      "Ver": 8284,
      "DECLARE": 8285,
      "241": 8286,
      "IVATE": 8287,
      "Ġ72": 8288,
      "ĠPraw": 8289,
      "Grid": 8290,
      "Ġgamma": 8291,
      "Ġ\".": 8292,
      "Pat": 8293,
      "icks": 8294,
      "ĠIV": 8295,
      "SYMBOL": 8296,
      "ĠoddziaÅĤ": 8297,
      "Ġdelta": 8298,
      "ologii": 8299,
      "ĠImp": 8300,
      "utdown": 8301,
      "Ġsuk": 8302,
      "ĠJednak": 8303,
      "Åļ": 8304,
      "meta": 8305,
      "ĠAk": 8306,
      "Normal": 8307,
      "Ġwody": 8308,
      "Ġnorm": 8309,
      "Ġsensor": 8310,
      "Ġdrugiej": 8311,
      "Power": 8312,
      "ÃŃ": 8313,
      "Ġ62": 8314,
      "mid": 8315,
      "Win": 8316,
      "AUTO": 8317,
      "oom": 8318,
      "random": 8319,
      "Exp": 8320,
      "Ġevery": 8321,
      "uv": 8322,
      "Ġ98": 8323,
      "Ġodkry": 8324,
      "hist": 8325,
      "ential": 8326,
      "ĠGLenum": 8327,
      "encode": 8328,
      "itej": 8329,
      "ASN": 8330,
      "Ġsigned": 8331,
      "PWM": 8332,
      "Fl": 8333,
      ",\\": 8334,
      "twarz": 8335,
      "gar": 8336,
      "ĀĀ": 8337,
      "Ġduch": 8338,
      "Ġpresent": 8339,
      "ificate": 8340,
      "ĠCRC": 8341,
      "ĠwedÅĤug": 8342,
      "pozy": 8343,
      "249": 8344,
      "TEXTURE": 8345,
      "Any": 8346,
      "Ġtechnolog": 8347,
      "Ġlike": 8348,
      "Ġolimpij": 8349,
      "HIGH": 8350,
      "Initialize": 8351,
      "optional": 8352,
      "Light": 8353,
      "Ġgre": 8354,
      "ĠSK": 8355,
      "found": 8356,
      "TOP": 8357,
      "Ġcannot": 8358,
      "ENU": 8359,
      "ĠroÅĽlin": 8360,
      "Ġzainteres": 8361,
      "hpp": 8362,
      "ĠZEND": 8363,
      "Ġ/****************************************************************************": 8364,
      "Ġplayer": 8365,
      "Ġzasad": 8366,
      "ĠLE": 8367,
      "compare": 8368,
      "RI": 8369,
      "Ġwykony": 8370,
      "Ġdrew": 8371,
      "CONF": 8372,
      "ĠCi": 8373,
      "Ġimm": 8374,
      "Detail": 8375,
      "Ġuro": 8376,
      "lector": 8377,
      "rule": 8378,
      "Ġgminy": 8379,
      "Ġwok": 8380,
      "Ġalbum": 8381,
      "Ġ89": 8382,
      "alog": 8383,
      "ĠSele": 8384,
      "yczna": 8385,
      "Ġtor": 8386,
      "inode": 8387,
      "Ġ74": 8388,
      "ook": 8389,
      "MOVE": 8390,
      "è¡": 8391,
      "Ġpw": 8392,
      "apped": 8393,
      "ĠFl": 8394,
      "ĠDISCL": 8395,
      "Ð²": 8396,
      "help": 8397,
      ",%": 8398,
      "802": 8399,
      "Ġpossible": 8400,
      "ĠDzie": 8401,
      "Ġprzewod": 8402,
      "ĠmiaÅĤa": 8403,
      "shape": 8404,
      "ĠÅĽwiatowej": 8405,
      "Ġtoo": 8406,
      "Ġprefix": 8407,
      "Ġ116": 8408,
      "Ġfizy": 8409,
      "åº": 8410,
      "dist": 8411,
      "STO": 8412,
      "Ġgodzin": 8413,
      "anagement": 8414,
      "builtin": 8415,
      "GER": 8416,
      "eÅĤ": 8417,
      "ites": 8418,
      "Ġ86": 8419,
      "undle": 8420,
      "ĠNON": 8421,
      "ĠRX": 8422,
      "Ġ144": 8423,
      "'\\": 8424,
      "ĠzespoÅĤu": 8425,
      "ĠwystÄħ": 8426,
      "237": 8427,
      "ĠmiejscowoÅĽci": 8428,
      "],&": 8429,
      "ĠStanisÅĤaw": 8430,
      "igdy": 8431,
      "Heap": 8432,
      "jekt": 8433,
      "AW": 8434,
      "ĠSy": 8435,
      "Ġtutaj": 8436,
      "ĠwystÄĻp": 8437,
      "zone": 8438,
      "181": 8439,
      "itude": 8440,
      "thing": 8441,
      "icate": 8442,
      "ĠprzykÅĤad": 8443,
      "kre": 8444,
      "ZERO": 8445,
      "Å¼eÅĦ": 8446,
      "PASS": 8447,
      "0003": 8448,
      "Ġzim": 8449,
      "ĠFin": 8450,
      "','\\": 8451,
      "Ġbaz": 8452,
      "ĠnaprawdÄĻ": 8453,
      "Ġkobiet": 8454,
      "Ġlit": 8455,
      "cjÄħ": 8456,
      "âĪĻ": 8457,
      "Ġtworz": 8458,
      "ĠpoÅĤudni": 8459,
      "DEP": 8460,
      "Ġms": 8461,
      "ĠState": 8462,
      "TIMEOUT": 8463,
      ">\\": 8464,
      "236": 8465,
      "opts": 8466,
      "sets": 8467,
      "STOP": 8468,
      "AUTH": 8469,
      "Ġrz": 8470,
      "ĠGr": 8471,
      "ains": 8472,
      "Ġmerge": 8473,
      "owaÅĤo": 8474,
      "iska": 8475,
      "ĠWR": 8476,
      "arzysz": 8477,
      "SEQUENTIAL": 8478,
      "Ġminut": 8479,
      "ÂĤ": 8480,
      "ĠtÄĻ": 8481,
      "ĠCorpor": 8482,
      "ictionary": 8483,
      "agi": 8484,
      "Select": 8485,
      "cam": 8486,
      "Ġdniu": 8487,
      "Ġsockaddr": 8488,
      "Ġopie": 8489,
      "Ġdistance": 8490,
      "soft": 8491,
      "(!__": 8492,
      "daje": 8493,
      "Ġsieci": 8494,
      "OURCE": 8495,
      "407": 8496,
      "Ġpob": 8497,
      "waj": 8498,
      "atem": 8499,
      "isko": 8500,
      "ĠRET": 8501,
      "Ġsq": 8502,
      "ĠVOID": 8503,
      "ĠuwaÅ¼": 8504,
      "Ġcert": 8505,
      "ĠDele": 8506,
      "Ġskip": 8507,
      "Ġeuro": 8508,
      "Ġkoniec": 8509,
      "xabab": 8510,
      "lit": 8511,
      "Sk": 8512,
      "Ġ1998": 8513,
      "ĠâĢ¢": 8514,
      "MPTY": 8515,
      "ĠBr": 8516,
      "009": 8517,
      "Ġevents": 8518,
      "Ġcommon": 8519,
      "Ġartyku": 8520,
      "ĠNUM": 8521,
      "PLAYER": 8522,
      "ĠPFNGL": 8523,
      "NUMBER": 8524,
      "Ġroutine": 8525,
      "Ġtp": 8526,
      "[%": 8527,
      "cko": 8528,
      "sun": 8529,
      "returns": 8530,
      "ĠwÅĤad": 8531,
      "ĠUser": 8532,
      "Ã³wczas": 8533,
      "ĠzaÅĤoÅ¼": 8534,
      "align": 8535,
      "Ġterm": 8536,
      "emon": 8537,
      "[];": 8538,
      "Ġsettings": 8539,
      "Ġprawo": 8540,
      "ĠmiejscowoÅĽÄĩ": 8541,
      "eration": 8542,
      "Ġshall": 8543,
      "Ġli": 8544,
      "vk": 8545,
      "Can": 8546,
      "Ġcorrect": 8547,
      "Ġgmina": 8548,
      "ĠgÅĤÃ³wnie": 8549,
      "ĠmoÅ¼liwoÅĽci": 8550,
      "ĠCOL": 8551,
      "ĠWar": 8552,
      "tron": 8553,
      "ĠBUS": 8554,
      "wajÄħ": 8555,
      "uuid": 8556,
      "Ġlines": 8557,
      "yte": 8558,
      "EIF": 8559,
      "eÅĽ": 8560,
      "Cy": 8561,
      "ĠSTATUS": 8562,
      "imitive": 8563,
      "ĠDIRECT": 8564,
      "OV": 8565,
      "container": 8566,
      "Ġ...)": 8567,
      "00000002": 8568,
      "ĠZas": 8569,
      "301": 8570,
      "Allocator": 8571,
      "IDL": 8572,
      "Ġactual": 8573,
      "Ġ111": 8574,
      "324": 8575,
      "MU": 8576,
      "ĠCorporation": 8577,
      "Build": 8578,
      "erator": 8579,
      "]\\": 8580,
      "MF": 8581,
      "Tab": 8582,
      "hore": 8583,
      "cg": 8584,
      "yki": 8585,
      "Ġmont": 8586,
      "Ġwpis": 8587,
      "INS": 8588,
      "Ġhf": 8589,
      "Ġest": 8590,
      "LC": 8591,
      "ĠKor": 8592,
      "ckich": 8593,
      "ĠSec": 8594,
      "ĠzostaÅĤo": 8595,
      "Ġpopular": 8596,
      "&,": 8597,
      "LETE": 8598,
      "ĠPost": 8599,
      "Ġzmian": 8600,
      "Depth": 8601,
      "ĠMan": 8602,
      "ĠsprzÄĻ": 8603,
      "Title": 8604,
      "Ġ(*(": 8605,
      "238": 8606,
      "Ã¶": 8607,
      "ktora": 8608,
      "239": 8609,
      "ĠkaÅ¼d": 8610,
      "]-": 8611,
      "iono": 8612,
      "azy": 8613,
      "2013": 8614,
      "qp": 8615,
      "Ġemit": 8616,
      "job": 8617,
      "Ġkeep": 8618,
      "Ġswojego": 8619,
      "ĠGminy": 8620,
      "Ġlet": 8621,
      "âĸĪâĸĪ": 8622,
      "Document": 8623,
      "Ġjestem": 8624,
      "ĠpomiÄĻdzy": 8625,
      "ĠtÅĤum": 8626,
      "bucket": 8627,
      "OVER": 8628,
      "TCP": 8629,
      "Ġxml": 8630,
      "stdout": 8631,
      "Go": 8632,
      "ĠPolska": 8633,
      "ĠINDIRECT": 8634,
      "utf": 8635,
      "ĠCONSEQUENTIAL": 8636,
      "Ġkonie": 8637,
      "ujÄħcy": 8638,
      "Ġstorage": 8639,
      "Vk": 8640,
      "Ġprzen": 8641,
      "TERN": 8642,
      "ĠumoÅ¼": 8643,
      "utom": 8644,
      "HAVE": 8645,
      "ĠUniversity": 8646,
      "POINTER": 8647,
      "inet": 8648,
      "HC": 8649,
      "Ġagain": 8650,
      "\"\"": 8651,
      "atalog": 8652,
      "ĠdokÅĤad": 8653,
      "ĠdÅĤug": 8654,
      "Mouse": 8655,
      "ĠuÅ¼ytkow": 8656,
      "0000007": 8657,
      "Ġchyba": 8658,
      "Ġbody": 8659,
      "ĠMT": 8660,
      "Atom": 8661,
      "ritical": 8662,
      "ĠFROM": 8663,
      "czych": 8664,
      "lineno": 8665,
      "ĠHel": 8666,
      "ĠOffset": 8667,
      "ACTION": 8668,
      "QUEUE": 8669,
      "neg": 8670,
      "ĠswÃ³j": 8671,
      "Ġbog": 8672,
      "Ġmenu": 8673,
      "Animation": 8674,
      "scanf": 8675,
      "union": 8676,
      "ĠmoÅ¼emy": 8677,
      "ĠPodczas": 8678,
      "325": 8679,
      "ĠOdznaczeni": 8680,
      "ĠAng": 8681,
      "Ġnarod": 8682,
      "ĠId": 8683,
      "Ġwybor": 8684,
      "MACRO": 8685,
      "rf": 8686,
      "nat": 8687,
      "ĠkaÅ¼dego": 8688,
      "aÅĤÄħ": 8689,
      "Ctrl": 8690,
      "ĠPop": 8691,
      "engine": 8692,
      ")((": 8693,
      "Ġconstructor": 8694,
      "Ġpierwsze": 8695,
      "Ġzu": 8696,
      "Ġzdecyd": 8697,
      "FLASH": 8698,
      "ĠXVI": 8699,
      "forward": 8700,
      "Ġpierwszej": 8701,
      "ĠMiasta": 8702,
      "php": 8703,
      "ĠwysokoÅĽci": 8704,
      "Ġmultiple": 8705,
      "Ġcompute": 8706,
      "Ġbind": 8707,
      "Ġcoraz": 8708,
      "yment": 8709,
      "Ġidentifier": 8710,
      "arb": 8711,
      "ĠzdjÄĻ": 8712,
      "iczna": 8713,
      "GOTREF": 8714,
      "ĠDla": 8715,
      "words": 8716,
      "ĠMB": 8717,
      "isji": 8718,
      "ĠobowiÄħz": 8719,
      "ĠSA": 8720,
      "Raw": 8721,
      "ĠCurrent": 8722,
      "Ġdalej": 8723,
      "Ġhow": 8724,
      "Ġderived": 8725,
      "ordered": 8726,
      "karz": 8727,
      "Ġpostaci": 8728,
      "Acc": 8729,
      "Dictionary": 8730,
      "Ġfrancu": 8731,
      "UNI": 8732,
      "ured": 8733,
      "218": 8734,
      "Ġ79": 8735,
      "Ġrozgryw": 8736,
      "apon": 8737,
      "Ġduring": 8738,
      "zj": 8739,
      "complex": 8740,
      "Ġ61": 8741,
      "ĠPHY": 8742,
      "ÅĤadzie": 8743,
      "codec": 8744,
      "ENTER": 8745,
      "Ġzdrow": 8746,
      "Expression": 8747,
      "hater": 8748,
      "RESOURCE": 8749,
      "Ġway": 8750,
      "ĠuwagÄĻ": 8751,
      "ĠSV": 8752,
      "cieÅ¼": 8753,
      "pred": 8754,
      "ĠARE": 8755,
      "446": 8756,
      "Ġprot": 8757,
      "ĠwartoÅĽci": 8758,
      "Ġkart": 8759,
      "LCD": 8760,
      "Helper": 8761,
      "Ġzar": 8762,
      "VECTOR": 8763,
      "jÄħcym": 8764,
      "6666": 8765,
      "las": 8766,
      "Ġogranicz": 8767,
      "1998": 8768,
      "ĠMet": 8769,
      "999": 8770,
      "Ġgranted": 8771,
      "ĠPROF": 8772,
      "jor": 8773,
      "irt": 8774,
      "Ġlot": 8775,
      "ĠWyst": 8776,
      "Ġstrcpy": 8777,
      "WITH": 8778,
      "ĠNast": 8779,
      "settings": 8780,
      "ĠCK": 8781,
      "Effect": 8782,
      "ingu": 8783,
      "ĠDod": 8784,
      "grpc": 8785,
      "EV": 8786,
      "Ġnor": 8787,
      "Ġproducent": 8788,
      "otor": 8789,
      "789": 8790,
      "REGISTER": 8791,
      "hing": 8792,
      "parameter": 8793,
      "sÅĤaw": 8794,
      "ĠGÅĤÃ³w": 8795,
      "Sm": 8796,
      "ĠBer": 8797,
      "Account": 8798,
      "Ġcer": 8799,
      "Ġ185": 8800,
      "ĠBlock": 8801,
      "RUN": 8802,
      "iteral": 8803,
      "issing": 8804,
      "ect": 8805,
      "xFA": 8806,
      "Ġselected": 8807,
      "XML": 8808,
      "Ġmeans": 8809,
      "ENTAL": 8810,
      "ÅĤac": 8811,
      "ĠAF": 8812,
      "Ġrez": 8813,
      "DATION": 8814,
      "Ġdl": 8815,
      "INTEGER": 8816,
      "ĠMake": 8817,
      "Sum": 8818,
      "My": 8819,
      "awa": 8820,
      "HD": 8821,
      "Ġ103": 8822,
      "åĢ": 8823,
      "Ġgtk": 8824,
      "tensor": 8825,
      "xCE": 8826,
      "ĠCzÄĻ": 8827,
      "Ġ//////////////////////////////////////////////////////////////////////////": 8828,
      "allocator": 8829,
      "Hist": 8830,
      "KERNEL": 8831,
      "UNDATION": 8832,
      "Ġretval": 8833,
      "ç½": 8834,
      "ĠALL": 8835,
      "ĠpiÅĤkar": 8836,
      "fixed": 8837,
      "6000": 8838,
      "2017": 8839,
      "Ã³ze": 8840,
      ")|": 8841,
      "Boolean": 8842,
      "ĠAws": 8843,
      "mgr": 8844,
      "ORMAL": 8845,
      "ÅĤasz": 8846,
      "Ġturyst": 8847,
      "Ġzbior": 8848,
      "okoj": 8849,
      "ĠBry": 8850,
      "nel": 8851,
      "ĠPie": 8852,
      "opcode": 8853,
      "Ġzaj": 8854,
      "ĠwÅĤos": 8855,
      "Begin": 8856,
      "czej": 8857,
      "pear": 8858,
      "ĠPolscy": 8859,
      "went": 8860,
      "vl": 8861,
      "Auto": 8862,
      "hy": 8863,
      "Ġts": 8864,
      "328": 8865,
      "333": 8866,
      "Ġtrace": 8867,
      "execute": 8868,
      "Ġrekl": 8869,
      "Ġsezonie": 8870,
      "Ġszybko": 8871,
      "Ġreprodu": 8872,
      "Ġtechnicz": 8873,
      "Ġregisters": 8874,
      "UNIT": 8875,
      "atter": 8876,
      "ĠLOSS": 8877,
      "Ġmachine": 8878,
      "ciorys": 8879,
      "cznÄħ": 8880,
      "dzial": 8881,
      "fv": 8882,
      "game": 8883,
      "Ġ**)": 8884,
      "ĠpomocÄħ": 8885,
      "ĠszkoÅĤy": 8886,
      "onom": 8887,
      "aration": 8888,
      "ĠnastÄĻpu": 8889,
      "Ġcontainer": 8890,
      "Ġresults": 8891,
      "Ġwszel": 8892,
      "ĠGÃ³r": 8893,
      "ĠcaÅĤy": 8894,
      "Ġbelow": 8895,
      "Ġaw": 8896,
      "ĠciÄħgu": 8897,
      "aud": 8898,
      "ĠdziaÅĤalnoÅĽci": 8899,
      "Man": 8900,
      "Ġzestaw": 8901,
      "ENABLED": 8902,
      "remote": 8903,
      "acing": 8904,
      "ORDER": 8905,
      "ĠSERVICE": 8906,
      "RESERVED": 8907,
      "Ġdestination": 8908,
      "ĠwojewÃ³dztwie": 8909,
      "Ġ*>": 8910,
      "ias": 8911,
      "weight": 8912,
      "striction": 8913,
      "ĠÅļlÄħ": 8914,
      "ĠmÅĤod": 8915,
      "RTC": 8916,
      "Only": 8917,
      "rust": 8918,
      "Ġszerok": 8919,
      "IMPL": 8920,
      "Ġfmt": 8921,
      "Ġgrid": 8922,
      "istic": 8923,
      "PECT": 8924,
      "Ġmaterials": 8925,
      "Native": 8926,
      "ĠUczest": 8927,
      "2015": 8928,
      "294": 8929,
      "czel": 8930,
      "0101": 8931,
      "allocated": 8932,
      "Ġniem": 8933,
      "endor": 8934,
      "Dst": 8935,
      "Ġtile": 8936,
      "serv": 8937,
      "wiata": 8938,
      "Ġparser": 8939,
      "LEFT": 8940,
      "ANK": 8941,
      "ĠbezpieczeÅĦ": 8942,
      "ĠRTC": 8943,
      "apshot": 8944,
      "SEQ": 8945,
      "vars": 8946,
      "Ġ76": 8947,
      "tego": 8948,
      "FM": 8949,
      "ĠDru": 8950,
      "Ġ112": 8951,
      "Å¼yser": 8952,
      "jech": 8953,
      "Ġngx": 8954,
      "kowy": 8955,
      "ĠdziÅĽ": 8956,
      "vals": 8957,
      "Ġ500": 8958,
      "itions": 8959,
      "ĠDom": 8960,
      "Fail": 8961,
      "Post": 8962,
      "rzej": 8963,
      "Ġhy": 8964,
      "ATCH": 8965,
      "Ġnec": 8966,
      "Ġ/******************************************************************************": 8967,
      "ĠCYTHON": 8968,
      "FORCE": 8969,
      "uri": 8970,
      "odzien": 8971,
      "Ġdid": 8972,
      "romadz": 8973,
      "Graphics": 8974,
      "pag": 8975,
      "GLOBAL": 8976,
      "Writer": 8977,
      "loor": 8978,
      "semb": 8979,
      "567": 8980,
      "å¼": 8981,
      "Ġdoesn": 8982,
      "Ġgame": 8983,
      "ĠSG": 8984,
      "proxy": 8985,
      "Ġpsz": 8986,
      "ĠJana": 8987,
      "rezent": 8988,
      "80211": 8989,
      "jestr": 8990,
      "ĠPROFITS": 8991,
      "Ġbas": 8992,
      "ĠStar": 8993,
      "mux": 8994,
      "TOKEN": 8995,
      "rain": 8996,
      "azon": 8997,
      "Ġreceive": 8998,
      "mos": 8999,
      "Cor": 9000,
      "ĠAb": 9001,
      "ujÄħcych": 9002,
      "arzenia": 9003,
      "340": 9004,
      "ĠPROC": 9005,
      "PUBLIC": 9006,
      "Ġstyle": 9007,
      "PROP": 9008,
      "piÅĤ": 9009,
      "icki": 9010,
      "Scan": 9011,
      "Ġsprawdz": 9012,
      "Ġ88": 9013,
      "events": 9014,
      "rypto": 9015,
      "Ġprzek": 9016,
      "Ġkry": 9017,
      "rep": 9018,
      "PROG": 9019,
      "EventArgs": 9020,
      "386": 9021,
      "chrony": 9022,
      "Ġcontribut": 9023,
      "machine": 9024,
      "ĠJer": 9025,
      "Ġeffect": 9026,
      "Ġhrab": 9027,
      "Ġpowi": 9028,
      "ĠBYTE": 9029,
      "Ġprywat": 9030,
      "ĠAkadem": 9031,
      "failed": 9032,
      "Uni": 9033,
      "GLenum": 9034,
      "trie": 9035,
      "Ġspeed": 9036,
      "force": 9037,
      "Ġmesh": 9038,
      ".:": 9039,
      "Ġszl": 9040,
      "302": 9041,
      "iar": 9042,
      "Ġhope": 9043,
      "owaÅ¼": 9044,
      "Runtime": 9045,
      "ĠpracÄĻ": 9046,
      "family": 9047,
      "resp": 9048,
      "Ã³dz": 9049,
      "biut": 9050,
      "Pe": 9051,
      "Ġche": 9052,
      "dÅº": 9053,
      "MG": 9054,
      "TARGET": 9055,
      "enci": 9056,
      "INVALC": 9057,
      "blocks": 9058,
      "Ġzajm": 9059,
      "ĠÅĤÄħcz": 9060,
      "ĠÅ»yciorys": 9061,
      "Ġ78": 9062,
      "Ġcc": 9063,
      "Ġcursor": 9064,
      "Ġ82": 9065,
      "ciÄħÅ¼": 9066,
      "transform": 9067,
      "ĠDefin": 9068,
      "Ġpomocy": 9069,
      "ĠcaÅĤkow": 9070,
      "ĠKaÅ¼": 9071,
      "Ġmacro": 9072,
      "SSION": 9073,
      "Ġ){": 9074,
      "Ġcalls": 9075,
      "Ġ<>": 9076,
      "cons": 9077,
      "Fin": 9078,
      "aliÅĽmy": 9079,
      "Ġuczni": 9080,
      "Listener": 9081,
      "eto": 9082,
      "Ġcs": 9083,
      "dv": 9084,
      "Ġbiskup": 9085,
      "Ġzmiany": 9086,
      "Ñı": 9087,
      "Adapter": 9088,
      "ĠspÃ³ÅĤ": 9089,
      "FMT": 9090,
      "idden": 9091,
      "liwia": 9092,
      "xDF": 9093,
      "Column": 9094,
      "CAM": 9095,
      "network": 9096,
      "IGENCE": 9097,
      "plied": 9098,
      "peat": 9099,
      "ÅºÄĩ": 9100,
      "ĠLocal": 9101,
      "adc": 9102,
      "olver": 9103,
      "IBILITY": 9104,
      ")>": 9105,
      "moved": 9106,
      "GLIGENCE": 9107,
      "allel": 9108,
      "Ġpoza": 9109,
      "Ġpayload": 9110,
      "ĠPolskiego": 9111,
      "ĠjednÄħ": 9112,
      "ĠnajwyÅ¼": 9113,
      "Cert": 9114,
      "ĠNEGLIGENCE": 9115,
      "ĠSTRICT": 9116,
      "Ġdobr": 9117,
      "ĠGenerated": 9118,
      "nos": 9119,
      "265": 9120,
      "Ġnaszym": 9121,
      "Ġcaller": 9122,
      "coord": 9123,
      "cip": 9124,
      "ĠbezpoÅĽred": 9125,
      "ĠGda": 9126,
      "Loop": 9127,
      "Custom": 9128,
      "ĠukoÅĦ": 9129,
      "Ġnowych": 9130,
      "hand": 9131,
      "ios": 9132,
      "Ġpotem": 9133,
      "VIDE": 9134,
      "Ġchodzi": 9135,
      "Ġplay": 9136,
      "AUDIO": 9137,
      "Slot": 9138,
      "Ġznalaz": 9139,
      "Ġdistribute": 9140,
      "Ġregul": 9141,
      "Ġpopraw": 9142,
      "ĠRCC": 9143,
      "Seq": 9144,
      "HDR": 9145,
      "sha": 9146,
      "ENC": 9147,
      "ĠĠĉĠĠĠĠĠ": 9148,
      "Ġsched": 9149,
      "Ġdyre": 9150,
      "files": 9151,
      "Ġpermitted": 9152,
      "Ġcurr": 9153,
      "Ġwarning": 9154,
      "Ġ94": 9155,
      "ĠpaÅĦstw": 9156,
      "final": 9157,
      "vid": 9158,
      "MODEL": 9159,
      "cem": 9160,
      "ĠCommand": 9161,
      "ĠInform": 9162,
      "ĠREAD": 9163,
      "ãģ®": 9164,
      "ajem": 9165,
      "aleÅ¼y": 9166,
      "ANY": 9167,
      "Ġlower": 9168,
      "MK": 9169,
      "Ġpm": 9170,
      "prec": 9171,
      "DK": 9172,
      "cccc": 9173,
      "dn": 9174,
      "Ġkal": 9175,
      "front": 9176,
      "ison": 9177,
      "Ġnoc": 9178,
      "JS": 9179,
      "Ġmoment": 9180,
      "ĠJÃ³ze": 9181,
      "NB": 9182,
      "ĠchciaÅĤ": 9183,
      "Ġchanged": 9184,
      "Ġdomain": 9185,
      "oÅ¼y": 9186,
      "Remove": 9187,
      "ĠwÅĤaÅĽc": 9188,
      "Ġjednego": 9189,
      "Stats": 9190,
      "Ġnb": 9191,
      "fetch": 9192,
      "owanÄħ": 9193,
      "ĠMIN": 9194,
      "ĠWÅĤ": 9195,
      "//!": 9196,
      "________________": 9197,
      "Ġblis": 9198,
      "MULTI": 9199,
      "Ġheap": 9200,
      "ird": 9201,
      "Ġneeds": 9202,
      "Cursor": 9203,
      "Ġvideo": 9204,
      "iface": 9205,
      "Ġoptional": 9206,
      "ĠMIT": 9207,
      "Ġturniej": 9208,
      "convert": 9209,
      "ĠZach": 9210,
      "4000": 9211,
      "Ġscen": 9212,
      "Ġside": 9213,
      "ĠRzeczy": 9214,
      "chy": 9215,
      "Tile": 9216,
      "ĠOK": 9217,
      "ĠmiÄĻ": 9218,
      "UV": 9219,
      "Ġcr": 9220,
      "rÃ³t": 9221,
      "orizont": 9222,
      "pdev": 9223,
      "ĠwspÃ³ÅĤprac": 9224,
      "zew": 9225,
      "ĠMK": 9226,
      "Ġ73": 9227,
      "feature": 9228,
      "Ġusage": 9229,
      "Character": 9230,
      "Ġarea": 9231,
      "ĠGLuint": 9232,
      "Show": 9233,
      "Ġ87": 9234,
      "ĠĠĉĉĠ": 9235,
      "Ġobecnie": 9236,
      "Cpp": 9237,
      "RATE": 9238,
      "owani": 9239,
      "Ġgor": 9240,
      "ĠzgÅĤ": 9241,
      "ĠOption": 9242,
      "IES": 9243,
      "metadata": 9244,
      "CREATE": 9245,
      "ĠSCIP": 9246,
      "DRIVER": 9247,
      "ĠINTERRUP": 9248,
      "ĠWas": 9249,
      "Ġskle": 9250,
      "conv": 9251,
      "ĠkaÅ¼dym": 9252,
      "single": 9253,
      "Save": 9254,
      "Ġlhs": 9255,
      "Ġcleanup": 9256,
      "Ġmov": 9257,
      "ression": 9258,
      "Ġtzw": 9259,
      "ĠstaÅĤ": 9260,
      "Ġlook": 9261,
      "Ġprostu": 9262,
      "Ġ204": 9263,
      "Ġczyt": 9264,
      "owÄĻ": 9265,
      "lision": 9266,
      "ientation": 9267,
      "Ġtrzech": 9268,
      "Tri": 9269,
      "rument": 9270,
      "Ġ155": 9271,
      "ĠĠĠĠĉĉ": 9272,
      "Ġgenerate": 9273,
      "Ġjednej": 9274,
      "Ġrosyj": 9275,
      "iet": 9276,
      "verage": 9277,
      "Ġcontroller": 9278,
      "SHORT": 9279,
      "ifik": 9280,
      "Sim": 9281,
      "xAF": 9282,
      "otel": 9283,
      "ĠXXX": 9284,
      "rÃ³j": 9285,
      "acjach": 9286,
      "ilo": 9287,
      "Ġcurrently": 9288,
      "ĠDEFAULT": 9289,
      "TASK": 9290,
      "Ag": 9291,
      "JECT": 9292,
      "ĠzarzÄħdz": 9293,
      "scall": 9294,
      "ĠPon": 9295,
      "hf": 9296,
      ">.": 9297,
      "uki": 9298,
      "erÃ³w": 9299,
      "Ġrazy": 9300,
      "ĠOther": 9301,
      "cols": 9302,
      "xBD": 9303,
      "sprintf": 9304,
      "Ġ83": 9305,
      "tkowo": 9306,
      "Success": 9307,
      "Ġ____": 9308,
      "Interval": 9309,
      "åľ": 9310,
      "tempt": 9311,
      "HAS": 9312,
      "ĠzespÃ³ÅĤ": 9313,
      "âķ": 9314,
      "Ġcharacters": 9315,
      "ĠCS": 9316,
      "QString": 9317,
      "nor": 9318,
      "Äħz": 9319,
      "szedÅĤ": 9320,
      "ĠLine": 9321,
      "DOUBLE": 9322,
      "itekt": 9323,
      "Ġlinii": 9324,
      "Ġprob": 9325,
      "havior": 9326,
      "HB": 9327,
      "HEAD": 9328,
      "ÅĽni": 9329,
      "ĠGEN": 9330,
      "ĠALT": 9331,
      "NONNULL": 9332,
      "poll": 9333,
      "ycznym": 9334,
      "Ġcontaining": 9335,
      "Ġpiosen": 9336,
      "ĠCONNE": 9337,
      "åĩ": 9338,
      "ĠAc": 9339,
      "326": 9340,
      "Progress": 9341,
      "structor": 9342,
      "SInt": 9343,
      "anÃ³w": 9344,
      "Ġwww": 9345,
      "czone": 9346,
      "ĠwzglÄĻdem": 9347,
      "otion": 9348,
      "ĠProdu": 9349,
      "_->": 9350,
      "ĠIz": 9351,
      "lrd": 9352,
      "::::": 9353,
      "ĠSign": 9354,
      "ĠConvert": 9355,
      "raszamy": 9356,
      "Ġnaszego": 9357,
      "Template": 9358,
      "One": 9359,
      "Ġ1990": 9360,
      "Std": 9361,
      "xAE": 9362,
      "ĠÅĤÄħ": 9363,
      "VOL": 9364,
      "Ġpunk": 9365,
      "esti": 9366,
      "hr": 9367,
      "mr": 9368,
      "fifo": 9369,
      "Ġsklep": 9370,
      "ieniu": 9371,
      "AVAIL": 9372,
      "skip": 9373,
      "Ġ{-": 9374,
      "XA": 9375,
      "ĠkoÅĦca": 9376,
      "Sy": 9377,
      "337": 9378,
      "Ġwej": 9379,
      "347": 9380,
      "ĠPWM": 9381,
      "ĠDziaÅĤ": 9382,
      "Ġdump": 9383,
      "Ġodb": 9384,
      "Ġrank": 9385,
      "llvm": 9386,
      "UTIL": 9387,
      "funcp": 9388,
      "600": 9389,
      "307": 9390,
      "Ġprzepis": 9391,
      "''": 9392,
      "ĠtrochÄĻ": 9393,
      "Ġuses": 9394,
      "WINDOW": 9395,
      "xBB": 9396,
      "Ġ1996": 9397,
      "osÅĤaw": 9398,
      "Ġaccept": 9399,
      "ĠZab": 9400,
      "Ang": 9401,
      "Ġinformacje": 9402,
      "Material": 9403,
      "Ġcomplete": 9404,
      "Ġdal": 9405,
      "Ã³ra": 9406,
      "ĠsiÅĤ": 9407,
      "Ġ107": 9408,
      "kInstruction": 9409,
      "VIEW": 9410,
      "ĠPermission": 9411,
      "Job": 9412,
      "ĠĠĉĉĠĠĉ": 9413,
      "Ġzapewnia": 9414,
      "TypeDef": 9415,
      "Ġkuch": 9416,
      ".\"": 9417,
      "Ġjedno": 9418,
      "807": 9419,
      "ĠStat": 9420,
      "Ġboost": 9421,
      "alnÄħ": 9422,
      "Ġwiem": 9423,
      "anny": 9424,
      "PIPE": 9425,
      "ĠDraw": 9426,
      "DX": 9427,
      "Ġtys": 9428,
      "Ġtrakcie": 9429,
      "Ġbt": 9430,
      "Ġpolskich": 9431,
      "Ġconstant": 9432,
      "rev": 9433,
      "ĠUkra": 9434,
      "tÄħ": 9435,
      "ĠVer": 9436,
      "verter": 9437,
      "ĠRemove": 9438,
      "cout": 9439,
      "Ġconsum": 9440,
      "anki": 9441,
      "Ġrozp": 9442,
      "Ġcfg": 9443,
      "unist": 9444,
      "RP": 9445,
      "niejszych": 9446,
      "Ð¼": 9447,
      "217": 9448,
      "ITCH": 9449,
      "ĠSUCH": 9450,
      "ĠVAR": 9451,
      "LAST": 9452,
      "ists": 9453,
      "hip": 9454,
      "argument": 9455,
      "fikacji": 9456,
      "SELECT": 9457,
      "RCC": 9458,
      "ĠÅĽmierci": 9459,
      "Segment": 9460,
      "Ġforms": 9461,
      "raints": 9462,
      "emit": 9463,
      "ĠJez": 9464,
      "Ġks": 9465,
      "fun": 9466,
      "Mutex": 9467,
      "Unicode": 9468,
      "Ow": 9469,
      "mg": 9470,
      "arp": 9471,
      "wrap": 9472,
      "PIX": 9473,
      "Ġacc": 9474,
      "policy": 9475,
      "ĠSim": 9476,
      "805": 9477,
      "ĠWeb": 9478,
      "sizei": 9479,
      "dom": 9480,
      "Ġinstal": 9481,
      "ĠmiesiÄĻ": 9482,
      "314": 9483,
      "anim": 9484,
      "Ãĵ": 9485,
      "Ġcompletion": 9486,
      "::__": 9487,
      "ĠMemory": 9488,
      "seek": 9489,
      "SPEC": 9490,
      "Ġerrors": 9491,
      "namespace": 9492,
      "Delay": 9493,
      "Push": 9494,
      "atury": 9495,
      "ĠmyÅĽl": 9496,
      "segment": 9497,
      "ĠTow": 9498,
      "CIDENTAL": 9499,
      "BYTES": 9500,
      "ogram": 9501,
      "Icon": 9502,
      "FileName": 9503,
      "ĠHol": 9504,
      "Opt": 9505,
      "rn": 9506,
      "WD": 9507,
      "zeum": 9508,
      "prom": 9509,
      "ĉĉĉĉĉĉĉ": 9510,
      "ĠINCIDENTAL": 9511,
      "success": 9512,
      "RIX": 9513,
      "Åºni": 9514,
      "016": 9515,
      "fu": 9516,
      "Ġ240": 9517,
      "expression": 9518,
      "ulate": 9519,
      "336": 9520,
      "ĠChannel": 9521,
      "adv": 9522,
      "DIP": 9523,
      "Ġdysk": 9524,
      "Äħcego": 9525,
      "ĠpoÅĽwiÄĻ": 9526,
      "ĠFrancji": 9527,
      "owiec": 9528,
      "ĠCMD": 9529,
      "Ġitems": 9530,
      "legÅĤoÅĽci": 9531,
      "STIT": 9532,
[...]
